{"version":"1.0","truncation":null,"padding":null,"added_tokens":[{"id":0,"special":true,"content":"[UNK]","single_word":false,"lstrip":false,"rstrip":false,"normalized":false},{"id":1,"special":true,"content":"[PAD]","single_word":false,"lstrip":false,"rstrip":false,"normalized":false}],"normalizer":null,"pre_tokenizer":{"type":"Whitespace"},"post_processor":null,"decoder":null,"model":{"type":"WordPiece","unk_token":"[UNK]","continuing_subword_prefix":"##","max_input_chars_per_word":100,"vocab":{"[UNK]":0,"[PAD]":1,"'":2,"a":3,"b":4,"c":5,"d":6,"e":7,"f":8,"g":9,"h":10,"i":11,"j":12,"k":13,"l":14,"m":15,"n":16,"o":17,"p":18,"q":19,"r":20,"s":21,"t":22,"u":23,"v":24,"w":25,"x":26,"y":27,"z":28,"##o":29,"##m":30,"##e":31,"##r":32,"##s":33,"##a":34,"##u":35,"##l":36,"##t":37,"##p":38,"##h":39,"##i":40,"##c":41,"##x":42,"##n":43,"##f":44,"##y":45,"##k":46,"##g":47,"##w":48,"##d":49,"##z":50,"##v":51,"##b":52,"##j":53,"##q":54,"th":55,"the":56,"##er":57,"##nd":58,"##in":59,"##ed":60,"##ou":61,"##at":62,"##en":63,"and":64,"##or":65,"##es":66,"to":67,"of":68,"##on":69,"##is":70,"##ing":71,"##ar":72,"##it":73,"##as":74,"##an":75,"##ll":76,"in":77,"##re":78,"wh":79,"he":80,"##om":81,"be":82,"ha":83,"##le":84,"##ot":85,"##ow":86,"##ic":87,"##ut":88,"it":89,"##ld":90,"that":91,"sh":92,"##ly":93,"was":94,"##gh":95,"##id":96,"##se":97,"on":98,"##ve":99,"##et":100,"##ent":101,"you":102,"##im":103,"##st":104,"##ce":105,"##ith":106,"for":107,"##ir":108,"##ion":109,"as":110,"##ay":111,"his":112,"##al":113,"with":114,"##ur":115,"st":116,"##ter":117,"her":118,"##ver":119,"##ch":120,"re":121,"##ad":122,"##ght":123,"an":124,"not":125,"had":126,"is":127,"sa":128,"at":129,"##oo":130,"##her":131,"but":132,"##ould":133,"she":134,"##ct":135,"##ess":136,"fr":137,"se":138,"##am":139,"pr":140,"we":141,"him":142,"so":143,"##ill":144,"##ain":145,"su":146,"##ight":147,"me":148,"##ere":149,"##all":150,"##ke":151,"##il":152,"de":153,"they":154,"my":155,"all":156,"##est":157,"##ich":158,"ch":159,"ne":160,"by":161,"have":162,"##ome":163,"##pp":164,"##ck":165,"li":166,"this":167,"##ore":168,"do":169,"con":170,"##us":171,"which":172,"##ri":173,"##ul":174,"up":175,"said":176,"from":177,"##th":178,"##ard":179,"##ge":180,"##ra":181,"or":182,"one":183,"no":184,"ex":185,"were":186,"there":187,"##os":188,"##pe":189,"man":190,"##ble":191,"who":192,"al":193,"##ant":194,"##ie":195,"##ous":196,"##ust":197,"##ation":198,"fe":199,"##and":200,"them":201,"##ers":202,"##lf":203,"when":204,"##ind":205,"##ast":206,"##ood":207,"go":208,"kn":209,"##un":210,"##our":211,"##ist":212,"##em":213,"are":214,"##out":215,"would":216,"##art":217,"their":218,"##ong":219,"what":220,"le":221,"en":222,"if":223,"un":224,"##ound":225,"##if":226,"com":227,"ab":228,"out":229,"wor":230,"##ol":231,"br":232,"will":233,"int":234,"##ak":235,"mis":236,"##ate":237,"##op":238,"##um":239,"##ough":240,"##la":241,"##itt":242,"ar":243,"##ook":244,"##ish":245,"##ap":246,"##one":247,"been":248,"##own":249,"##ame":250,"then":251,"##ven":252,"##self":253,"##ive":254,"tr":255,"ro":256,"##ig":257,"##reat":258,"fa":259,"af":260,"sp":261,"##ery":262,"qu":263,"##ity":264,"##ort":265,"##ost":266,"tw":267,"ag":268,"could":269,"am":270,"##el":271,"##ake":272,"any":273,"some":274,"##ure":275,"your":276,"more":277,"can":278,"tim":279,"##ep":280,"##nder":281,"ever":282,"##ther":283,"##ence":284,"##fe":285,"into":286,"##ry":287,"##ose":288,"now":289,"##au":290,"##ag":291,"cl":292,"very":293,"##qu":294,"##ved":295,"bo":296,"other":297,"did":298,"##ance":299,"than":300,"##ittle":301,"little":302,"##ine":303,"##ies":304,"##oun":305,"look":306,"##way":307,"##urn":308,"like":309,"##ite":310,"gr":311,"##ass":312,"##ear":313,"##ach":314,"lo":315,"##able":316,"##ought":317,"##other":318,"know":319,"time":320,"im":321,"us":322,"co":323,"##fore":324,"##ell":325,"how":326,"##hing":327,"ad":328,"day":329,"##cc":330,"##ack":331,"about":332,"##ade":333,"##ice":334,"see":335,"over":336,"##ci":337,"##ide":338,"##pt":339,"dis":340,"##ink":341,"too":342,"##wn":343,"great":344,"after":345,"per":346,"pro":347,"again":348,"upon":349,"##ment":350,"hand":351,"has":352,"##ree":353,"##ked":354,"##ather":355,"only":356,"car":357,"##tain":358,"##ally":359,"str":360,"fl":361,"mar":362,"po":363,"##ab":364,"well":365,"should":366,"##pl":367,"say":368,"good":369,"##ings":370,"two":371,"thr":372,"##ud":373,"our":374,"##ving":375,"##oss":376,"##ty":377,"down":378,"##ire":379,"pe":380,"before":381,"##ile":382,"app":383,"##ves":384,"every":385,"its":386,"pl":387,"old":388,"cr":389,"off":390,"##ick":391,"made":392,"##ied":393,"long":394,"bl":395,"##age":396,"##ber":397,"where":398,"##ress":399,"fir":400,"mu":401,"##ang":402,"never":403,"must":404,"sm":405,"such":406,"##ull":407,"##ful":408,"##ions":409,"##ft":410,"pre":411,"came":412,"miss":413,"##ward":414,"##ro":415,"##een":416,"##orn":417,"##ue":418,"##ild":419,"even":420,"under":421,"these":422,"come":423,"##ord":424,"part":425,"sc":426,"fo":427,"##ated":428,"##ness":429,"rem":430,"ind":431,"bec":432,"may":433,"##per":434,"think":435,"much":436,"##ious":437,"mister":438,"way":439,"##ount":440,"##led":441,"ey":442,"let":443,"##ath":444,"thought":445,"##ect":446,"back":447,"spe":448,"gl":449,"bet":450,"##ady":451,"##ff":452,"##ans":453,"just":454,"res":455,"first":456,"##ise":457,"ho":458,"here":459,"des":460,"own":461,"ob":462,"##ried":463,"##ced":464,"##ces":465,"pla":466,"mo":467,"cont":468,"##ered":469,"##ary":470,"went":471,"himself":472,"men":473,"##me":474,"##co":475,"##int":476,"might":477,"##ily":478,"seem":479,"##ip":480,"##oth":481,"beg":482,"##ouse":483,"wat":484,"comp":485,"##ave":486,"sw":487,"through":488,"##igh":489,"away":490,"em":491,"get":492,"head":493,"don":494,"imp":495,"bel":496,"##llow":497,"##ened":498,"without":499,"##iz":500,"pass":501,"most":502,"life":503,"ear":504,"make":505,"cons":506,"som":507,"turn":508,"##ac":509,"##iv":510,"shall":511,"##ng":512,"those":513,"eyes":514,"pres":515,"acc":516,"house":517,"att":518,"somet":519,"jo":520,"still":521,"call":522,"##ew":523,"##ens":524,"##red":525,"op":526,"night":527,"wom":528,"last":529,"##ark":530,"nothing":531,"##ign":532,"tell":533,"##ause":534,"la":535,"new":536,"sl":537,"##ction":538,"##iff":539,"take":540,"being":541,"comm":542,"many":543,"##les":544,"inter":545,"word":546,"##atter":547,"wr":548,"##are":549,"found":550,"ret":551,"##ons":552,"ser":553,"##ase":554,"while":555,"##ory":556,"saw":557,"year":558,"##ix":559,"put":560,"##ople":561,"##iend":562,"far":563,"##dy":564,"young":565,"##aking":566,"once":567,"friend":568,"people":569,"##ether":570,"##air":571,"##ible":572,"work":573,"##ors":574,"room":575,"##ently":576,"##pect":577,"three":578,"##ted":579,"yet":580,"##ever":581,"same":582,"count":583,"father":584,"right":585,"child":586,"cour":587,"another":588,"place":589,"##ne":590,"though":591,"##ition":592,"want":593,"##less":594,"##ince":595,"king":596,"end":597,"happ":598,"heart":599,"##ian":600,"nat":601,"##thing":602,"gra":603,"face":604,"took":605,"love":606,"dist":607,"##ace":608,"arm":609,"inst":610,"rep":611,"##man":612,"##alk":613,"##ult":614,"nor":615,"##cl":616,"te":617,"set":618,"ple":619,"char":620,"looked":621,"missus":622,"light":623,"##gg":624,"mind":625,"asked":626,"supp":627,"wa":628,"ll":629,"yes":630,"left":631,"##cess":632,"ac":633,"##ub":634,"##ting":635,"##ished":636,"pers":637,"things":638,"##augh":639,"##ents":640,"sir":641,"##ways":642,"##te":643,"mom":644,"near":645,"##irl":646,"##ations":647,"##sw":648,"sat":649,"find":650,"##sel":651,"world":652,"##der":653,"##ia":654,"##rew":655,"##ject":656,"##ower":657,"##fect":658,"give":659,"##av":660,"gen":661,"cap":662,"gu":663,"why":664,"##ict":665,"mother":666,"always":667,"##ling":668,"##so":669,"##pped":670,"soon":671,"##iver":672,"answ":673,"##den":674,"form":675,"war":676,"heard":677,"thing":678,"seemed":679,"something":680,"door":681,"sub":682,"##ph":683,"girl":684,"##ange":685,"god":686,"##und":687,"wind":688,"mon":689,"diff":690,"because":691,"##ertain":692,"##de":693,"told":694,"going":695,"home":696,"ke":697,"##ither":698,"got":699,"el":700,"##orm":701,"##ret":702,"high":703,"##ock":704,"sur":705,"##ched":706,"eng":707,"ma":708,"gi":709,"##land":710,"hands":711,"woman":712,"moment":713,"##ank":714,"ph":715,"vo":716,"poss":717,"##aut":718,"follow":719,"ve":720,"dr":721,"##ning":722,"feel":723,"##ple":724,"ev":725,"##lt":726,"##ical":727,"return":728,"boy":729,"knew":730,"reg":731,"rest":732,"each":733,"kind":734,"##ner":735,"inf":736,"conf":737,"tra":738,"cle":739,"##ush":740,"oh":741,"hel":742,"sil":743,"##orr":744,"rel":745,"##ual":746,"ass":747,"wo":748,"##ars":749,"certain":750,"against":751,"water":752,"bre":753,"##cept":754,"##uck":755,"belie":756,"exp":757,"hard":758,"prop":759,"years":760,"beh":761,"quite":762,"##iness":763,"unt":764,"##ined":765,"side":766,"del":767,"appear":768,"four":769,"few":770,"better":771,"done":772,"##ool":773,"half":774,"##ited":775,"##ail":776,"min":777,"tre":778,"ref":779,"also":780,"##oub":781,"##cy":782,"began":783,"##most":784,"##ows":785,"pur":786,"##ully":787,"ter":788,"act":789,"##ised":790,"##act":791,"having":792,"##vent":793,"dra":794,"enough":795,"dear":796,"gener":797,"seen":798,"lady":799,"##ared":800,"##ash":801,"hum":802,"##aster":803,"##aken":804,"##oke":805,"inde":806,"called":807,"hour":808,"##ying":809,"cur":810,"##ps":811,"##ier":812,"##ason":813,"does":814,"whole":815,"morn":816,"##uth":817,"pleas":818,"turned":819,"##ib":820,"##aps":821,"betw":822,"##ial":823,"##ense":824,"ins":825,"##ream":826,"occ":827,"course":828,"##gether":829,"sou":830,"both":831,"gave":832,"##ired":833,"poor":834,"read":835,"add":836,"##ten":837,"ste":838,"col":839,"bla":840,"##selves":841,"between":842,"among":843,"##ular":844,"beaut":845,"keep":846,"matter":847,"white":848,"morning":849,"##ained":850,"sure":851,"name":852,"##ged":853,"toward":854,"care":855,"whom":856,"small":857,"sk":858,"par":859,"##owed":860,"exc":861,"##ute":862,"lar":863,"pa":864,"##osed":865,"felt":866,"##ating":867,"##bo":868,"open":869,"##ks":870,"##ru":871,"six":872,"myself":873,"however":874,"es":875,"##ond":876,"##xt":877,"herself":878,"stood":879,"hund":880,"hundred":881,"##plied":882,"sent":883,"sim":884,"round":885,"##ife":886,"inc":887,"##ates":888,"almost":889,"point":890,"##tered":891,"days":892,"##ters":893,"##eng":894,"eight":895,"gre":896,"hor":897,"words":898,"fam":899,"##dden":900,"land":901,"##ung":902,"stand":903,"sun":904,"##ird":905,"##haps":906,"mean":907,"perhaps":908,"##iet":909,"##ures":910,"bar":911,"art":912,"sudden":913,"dark":914,"ed":915,"bu":916,"sle":917,"best":918,"##iss":919,"hear":920,"replied":921,"voice":922,"##ton":923,"met":924,"till":925,"che":926,"anything":927,"##ren":928,"underst":929,"until":930,"black":931,"##its":932,"##oud":933,"##ned":934,"looking":935,"prin":936,"cried":937,"suff":938,"red":939,"##ins":940,"##amp":941,"aw":942,"next":943,"less":944,"law":945,"lay":946,"##vel":947,"power":948,"##end":949,"brought":950,"##not":951,"fact":952,"##enty":953,"##up":954,"##ately":955,"country":956,"help":957,"wonder":958,"sn":959,"air":960,"vis":961,"##als":962,"together":963,"quest":964,"##fully":965,"##med":966,"##ove":967,"adv":968,"unc":969,"person":970,"laugh":971,"need":972,"wish":973,"use":974,"indeed":975,"contin":976,"##oney":977,"since":978,"present":979,"gent":980,"har":981,"forg":982,"run":983,"full":984,"rather":985,"ide":986,"feet":987,"cond":988,"##eter":989,"sy":990,"ra":991,"fall":992,"##ok":993,"five":994,"##rib":995,"fin":996,"##cei":997,"bed":998,"mil":999,"##ater":1000,"doct":1001,"reach":1002,"##ured":1003,"interest":1004,"talk":1005,"consid":1006,"##sh":1007,"gone":1008,"lord":1009,"wife":1010,"##fort":1011,"##tle":1012,"death":1013,"serv":1014,"##ene":1015,"##pr":1016,"##ief":1017,"doub":1018,"adm":1019,"taken":1020,"hope":1021,"others":1022,"along":1023,"cannot":1024,"dire":1025,"speak":1026,"themselves":1027,"ext":1028,"ent":1029,"bes":1030,"##od":1031,"##lic":1032,"##uring":1033,"pol":1034,"large":1035,"##ued":1036,"gentle":1037,"master":1038,"fire":1039,"##oy":1040,"##ention":1041,"##iled":1042,"thus":1043,"sec":1044,"##ets":1045,"play":1046,"##ield":1047,"real":1048,"##ments":1049,"bus":1050,"##ead":1051,"prom":1052,"thous":1053,"reason":1054,"thousand":1055,"##iting":1056,"##ches":1057,"##akes":1058,"differ":1059,"##og":1060,"##ember":1061,"money":1062,"brother":1063,"dep":1064,"##unt":1065,"behind":1066,"true":1067,"children":1068,"answered":1069,"##used":1070,"sound":1071,"whose":1072,"wood":1073,"##ison":1074,"twenty":1075,"##ants":1076,"book":1077,"##ably":1078,"mer":1079,"inv":1080,"believe":1081,"thou":1082,"hold":1083,"ele":1084,"hon":1085,"rec":1086,"passed":1087,"dec":1088,"##ude":1089,"opp":1090,"fair":1091,"##ities":1092,"##cover":1093,"sch":1094,"##cious":1095,"nature":1096,"##ength":1097,"##ys":1098,"alone":1099,"sing":1100,"##ided":1101,"##ering":1102,"##app":1103,"dead":1104,"fur":1105,"sever":1106,"cat":1107,"gold":1108,"hur":1109,"doctor":1110,"##ont":1111,"close":1112,"start":1113,"ground":1114,"sea":1115,"pat":1116,"ask":1117,"son":1118,"strong":1119,"leave":1120,"##illed":1121,"##ept":1122,"compan":1123,"##cond":1124,"obs":1125,"##ides":1126,"fell":1127,"doubt":1128,"##body":1129,"sign":1130,"given":1131,"earth":1132,"##ances":1133,"fear":1134,"remember":1135,"ir":1136,"##iful":1137,"##ually":1138,"deep":1139,"therefore":1140,"body":1141,"pap":1142,"##ressed":1143,"short":1144,"often":1145,"##ane":1146,"##oc":1147,"##ceed":1148,"second":1149,"tem":1150,"##du":1151,"##owing":1152,"fort":1153,"horse":1154,"mad":1155,"stre":1156,"##ale":1157,"##mb":1158,"clear":1159,"const":1160,"##irc":1161,"ten":1162,"order":1163,"fif":1164,"##vers":1165,"eas":1166,"really":1167,"spir":1168,"##laim":1169,"##read":1170,"##ceived":1171,"bur":1172,"##az":1173,"ill":1174,"abs":1175,"spr":1176,"list":1177,"##osition":1178,"question":1179,"understand":1180,"chr":1181,"wall":1182,"pain":1183,"aff":1184,"coming":1185,"##anger":1186,"everything":1187,"circ":1188,"bra":1189,"##cted":1190,"##ching":1191,"above":1192,"expl":1193,"##ready":1194,"least":1195,"step":1196,"already":1197,"##esh":1198,"itself":1199,"used":1200,"prince":1201,"##ized":1202,"necess":1203,"suddenly":1204,"##hn":1205,"##ister":1206,"tri":1207,"around":1208,"case":1209,"general":1210,"num":1211,"soul":1212,"mag":1213,"evening":1214,"known":1215,"lad":1216,"##imes":1217,"lear":1218,"quick":1219,"whether":1220,"##ific":1221,"within":1222,"live":1223,"times":1224,"expect":1225,"captain":1226,"##alked":1227,"##men":1228,"sort":1229,"swe":1230,"women":1231,"friends":1232,"##gn":1233,"bring":1234,"john":1235,"sum":1236,"dri":1237,"table":1238,"meet":1239,"returned":1240,"held":1241,"state":1242,"walk":1243,"big":1244,"##eth":1245,"else":1246,"obser":1247,"lea":1248,"##cer":1249,"during":1250,"mus":1251,"mid":1252,"##ident":1253,"beautiful":1254,"says":1255,"town":1256,"either":1257,"ord":1258,"sight":1259,"##ape":1260,"lost":1261,"##ety":1262,"cal":1263,"foot":1264,"kept":1265,"cut":1266,"means":1267,"##ience":1268,"sleep":1269,"##vern":1270,"prof":1271,"past":1272,"stra":1273,"dream":1274,"fellow":1275,"##lish":1276,"##gar":1277,"became":1278,"pret":1279,"##ution":1280,"bad":1281,"est":1282,"##ages":1283,"##ey":1284,"object":1285,"making":1286,"mist":1287,"##ts":1288,"strange":1289,"towards":1290,"##ught":1291,"dev":1292,"low":1293,"manner":1294,"##ott":1295,"human":1296,"##ient":1297,"##gs":1298,"##old":1299,"ang":1300,"##ines":1301,"daugh":1302,"##here":1303,"##aught":1304,"rich":1305,"city":1306,"##airs":1307,"ru":1308,"##oon":1309,"sometimes":1310,"dem":1311,"##ility":1312,"rose":1313,"##itch":1314,"ann":1315,"pal":1316,"##cing":1317,"road":1318,"ready":1319,"##iew":1320,"ran":1321,"cold":1322,"corn":1323,"acr":1324,"##ians":1325,"##aring":1326,"##nded":1327,"won":1328,"##mer":1329,"bit":1330,"truth":1331,"squ":1332,"pie":1333,"didn":1334,"##br":1335,"thy":1336,"perfect":1337,"##orrow":1338,"thir":1339,"ship":1340,"soci":1341,"business":1342,"mur":1343,"##ountain":1344,"subject":1345,"arr":1346,"river":1347,"answer":1348,"disc":1349,"free":1350,"##arr":1351,"family":1352,"arms":1353,"hus":1354,"hair":1355,"jud":1356,"sit":1357,"cast":1358,"##ony":1359,"ah":1360,"##ingly":1361,"##oken":1362,"become":1363,"letter":1364,"##ouble":1365,"christ":1366,"##ote":1367,"possible":1368,"ut":1369,"val":1370,"several":1371,"lead":1372,"##aint":1373,"express":1374,"##ffect":1375,"natur":1376,"fine":1377,"##itting":1378,"arri":1379,"sus":1380,"idea":1381,"blood":1382,"##rie":1383,"quiet":1384,"able":1385,"glad":1386,"ca":1387,"##bed":1388,"##ert":1389,"##itted":1390,"consider":1391,"##iously":1392,"charac":1393,"##iam":1394,"begin":1395,"eye":1396,"equ":1397,"across":1398,"except":1399,"##band":1400,"chur":1401,"story":1402,"tou":1403,"##ative":1404,"sto":1405,"partic":1406,"diffic":1407,"surpr":1408,"window":1409,"prov":1410,"##dle":1411,"cent":1412,"##isf":1413,"flo":1414,"##use":1415,"discover":1416,"pen":1417,"soft":1418,"grand":1419,"##by":1420,"different":1421,"effect":1422,"wild":1423,"##ah":1424,"sold":1425,"longer":1426,"cross":1427,"followed":1428,"exper":1429,"def":1430,"cor":1431,"##ased":1432,"win":1433,"govern":1434,"pub":1435,"##teen":1436,"##antly":1437,"##cul":1438,"##ards":1439,"enter":1440,"respect":1441,"husband":1442,"##ices":1443,"fre":1444,"proper":1445,"suppose":1446,"comple":1447,"hast":1448,"taking":1449,"happy":1450,"sal":1451,"creat":1452,"heav":1453,"show":1454,"stay":1455,"daughter":1456,"thee":1457,"bird":1458,"spoke":1459,"appro":1460,"requ":1461,"##essed":1462,"wee":1463,"##alth":1464,"##une":1465,"mere":1466,"din":1467,"cra":1468,"##ny":1469,"anim":1470,"green":1471,"##empt":1472,"cover":1473,"gard":1474,"##ms":1475,"draw":1476,"##anged":1477,"reached":1478,"pretty":1479,"##ination":1480,"appeared":1481,"##ov":1482,"##ug":1483,"exist":1484,"opened":1485,"common":1486,"slow":1487,"##utes":1488,"coll":1489,"hea":1490,"imag":1491,"##ize":1492,"##ley":1493,"occas":1494,"##lly":1495,"mountain":1496,"saying":1497,"##ench":1498,"mor":1499,"##ames":1500,"tom":1501,"ap":1502,"##ising":1503,"fav":1504,"rock":1505,"scar":1506,"break":1507,"accord":1508,"satisf":1509,"month":1510,"##oura":1511,"sense":1512,"succ":1513,"stri":1514,"##ump":1515,"continued":1516,"carried":1517,"contr":1518,"##outh":1519,"spirit":1520,"cry":1521,"church":1522,"secret":1523,"certainly":1524,"wanted":1525,"##be":1526,"command":1527,"sens":1528,"move":1529,"##lled":1530,"tree":1531,"dest":1532,"lu":1533,"account":1534,"##ats":1535,"##ots":1536,"##riage":1537,"purp":1538,"##res":1539,"##ement":1540,"dro":1541,"prep":1542,"ought":1543,"street":1544,"##owers":1545,"decl":1546,"esc":1547,"breat":1548,"stud":1549,"fan":1550,"##medi":1551,"tear":1552,"character":1553,"sla":1554,"##ime":1555,"school":1556,"##son":1557,"feeling":1558,"regard":1559,"quar":1560,"heaven":1561,"##itude":1562,"sad":1563,"worth":1564,"rid":1565,"##eric":1566,"hung":1567,"bright":1568,"trans":1569,"##iest":1570,"hill":1571,"mot":1572,"##ric":1573,"cloth":1574,"##laimed":1575,"hot":1576,"dut":1577,"disapp":1578,"##iling":1579,"blue":1580,"##ury":1581,"reco":1582,"disp":1583,"english":1584,"##ney":1585,"delight":1586,"##idence":1587,"view":1588,"produ":1589,"dress":1590,"sweet":1591,"seven":1592,"ye":1593,"mill":1594,"port":1595,"fast":1596,"lived":1597,"success":1598,"neither":1599,"princess":1600,"##amed":1601,"div":1602,"court":1603,"##ains":1604,"self":1605,"var":1606,"chief":1607,"immedi":1608,"##tern":1609,"eat":1610,"hours":1611,"##ushed":1612,"##wh":1613,"##ask":1614,"carry":1615,"exam":1616,"import":1617,"ce":1618,"tried":1619,"bear":1620,"##day":1621,"##ledge":1622,"further":1623,"du":1624,"entered":1625,"uncle":1626,"number":1627,"cause":1628,"forward":1629,"offic":1630,"none":1631,"danger":1632,"##gr":1633,"det":1634,"pay":1635,"##gin":1636,"eff":1637,"particular":1638,"queen":1639,"deal":1640,"##umb":1641,"led":1642,"added":1643,"##ored":1644,"acqu":1645,"front":1646,"happened":1647,"walked":1648,"fight":1649,"prot":1650,"alth":1651,"intell":1652,"bene":1653,"maj":1654,"##bit":1655,"##ster":1656,"later":1657,"public":1658,"pray":1659,"##iar":1660,"##uss":1661,"joy":1662,"fig":1663,"##ger":1664,"although":1665,"##ening":1666,"prob":1667,"direct":1668,"comfort":1669,"##ship":1670,"mouth":1671,"sho":1672,"bat":1673,"##ality":1674,"fore":1675,"##side":1676,"yourself":1677,"mem":1678,"doing":1679,"##to":1680,"sol":1681,"living":1682,"seems":1683,"shad":1684,"##oof":1685,"field":1686,"bey":1687,"beyond":1688,"desp":1689,"##pend":1690,"received":1691,"garden":1692,"##inct":1693,"americ":1694,"party":1695,"mat":1696,"line":1697,"visit":1698,"gentleman":1699,"burn":1700,"phil":1701,"##uff":1702,"entire":1703,"laid":1704,"##ested":1705,"##ism":1706,"hall":1707,"age":1708,"repe":1709,"sister":1710,"##raid":1711,"occasion":1712,"nearly":1713,"##ndon":1714,"##irt":1715,"ge":1716,"##ously":1717,"accom":1718,"vi":1719,"whis":1720,"trees":1721,"send":1722,"lab":1723,"##cri":1724,"breath":1725,"##wards":1726,"eighteen":1727,"prison":1728,"forth":1729,"##ones":1730,"princi":1731,"##anced":1732,"thinking":1733,"early":1734,"##ilt":1735,"enem":1736,"try":1737,"terri":1738,"vill":1739,"minutes":1740,"chance":1741,"england":1742,"crow":1743,"med":1744,"##ior":1745,"mary":1746,"da":1747,"##where":1748,"anx":1749,"cre":1750,"afraid":1751,"##els":1752,"bank":1753,"late":1754,"##ming":1755,"smile":1756,"##bert":1757,"fle":1758,"pict":1759,"wait":1760,"news":1761,"seeing":1762,"pleasure":1763,"neigh":1764,"##iment":1765,"hat":1766,"##oint":1767,"super":1768,"trouble":1769,"glass":1770,"miles":1771,"auth":1772,"bill":1773,"silence":1774,"er":1775,"rob":1776,"coun":1777,"faith":1778,"plain":1779,"exclaimed":1780,"aunt":1781,"##ply":1782,"drew":1783,"neighb":1784,"chap":1785,"shar":1786,"##gy":1787,"##pping":1788,"change":1789,"length":1790,"necessary":1791,"purpose":1792,"standing":1793,"pract":1794,"mine":1795,"concer":1796,"deter":1797,"heavy":1798,"sevent":1799,"inqu":1800,"top":1801,"##icked":1802,"caught":1803,"##ives":1804,"bell":1805,"hardly":1806,"natural":1807,"##aw":1808,"##ues":1809,"##ession":1810,"circum":1811,"stopped":1812,"fing":1813,"##ounded":1814,"strength":1815,"av":1816,"opin":1817,"grew":1818,"knight":1819,"instead":1820,"island":1821,"##iced":1822,"##pper":1823,"ago":1824,"##ences":1825,"obl":1826,"##inary":1827,"loved":1828,"third":1829,"priv":1830,"determ":1831,"inn":1832,"conv":1833,"watch":1834,"emb":1835,"straight":1836,"beauty":1837,"##ining":1838,"##ler":1839,"##hood":1840,"peace":1841,"ver":1842,"##uct":1843,"approach":1844,"##ented":1845,"##king":1846,"south":1847,"convers":1848,"##ically":1849,"##eless":1850,"besides":1851,"thirty":1852,"den":1853,"##iter":1854,"sitting":1855,"clock":1856,"attention":1857,"dog":1858,"##ager":1859,"bab":1860,"rom":1861,"lie":1862,"plan":1863,"hist":1864,"position":1865,"##ma":1866,"##form":1867,"inform":1868,"##aged":1869,"hop":1870,"comes":1871,"pull":1872,"please":1873,"##ustom":1874,"grace":1875,"build":1876,"french":1877,"##ugg":1878,"whatever":1879,"resol":1880,"struck":1881,"##oom":1882,"force":1883,"girls":1884,"je":1885,"scarce":1886,"chair":1887,"knowledge":1888,"wrong":1889,"rap":1890,"fifty":1891,"attempt":1892,"##ius":1893,"thoughts":1894,"##ike":1895,"crowd":1896,"box":1897,"getting":1898,"##tained":1899,"dinner":1900,"thick":1901,"save":1902,"enj":1903,"die":1904,"company":1905,"##asp":1906,"##crib":1907,"rev":1908,"class":1909,"slight":1910,"##ils":1911,"immediately":1912,"exact":1913,"##oose":1914,"ast":1915,"##ls":1916,"treat":1917,"##usion":1918,"remark":1919,"maid":1920,"main":1921,"born":1922,"incl":1923,"fat":1924,"meant":1925,"drink":1926,"##elve":1927,"north":1928,"sugg":1929,"slowly":1930,"author":1931,"fish":1932,"tears":1933,"boys":1934,"##ists":1935,"saint":1936,"fool":1937,"lim":1938,"##ern":1939,"accept":1940,"infl":1941,"died":1942,"##ceive":1943,"stone":1944,"boat":1945,"post":1946,"fright":1947,"ty":1948,"belong":1949,"paper":1950,"youth":1951,"##cient":1952,"warm":1953,"enc":1954,"beside":1955,"bound":1956,"conse":1957,"quickly":1958,"##ging":1959,"##rupt":1960,"tone":1961,"vict":1962,"leg":1963,"jour":1964,"##par":1965,"imposs":1966,"brown":1967,"forgot":1968,"fix":1969,"##val":1970,"camp":1971,"##ified":1972,"forest":1973,"filled":1974,"van":1975,"##iers":1976,"london":1977,"moon":1978,"circumst":1979,"distance":1980,"snow":1981,"gather":1982,"lips":1983,"margar":1984,"##ift":1985,"desire":1986,"##bs":1987,"makes":1988,"##ee":1989,"placed":1990,"##ics":1991,"pock":1992,"margaret":1993,"food":1994,"floor":1995,"hen":1996,"##oured":1997,"refle":1998,"hors":1999,"##itions":2000,"spring":2001,"ball":2002,"##mon":2003,"following":2004,"jack":2005,"remained":2006,"laughed":2007,"safe":2008,"grow":2009,"ger":2010,"broken":2011,"##ively":2012,"##ries":2013,"##itten":2014,"##aded":2015,"##ann":2016,"depart":2017,"neck":2018,"government":2019,"remain":2020,"viol":2021,"und":2022,"ash":2023,"waiting":2024,"easy":2025,"##dom":2026,"knows":2027,"proceed":2028,"hid":2029,"thank":2030,"result":2031,"fresh":2032,"dread":2033,"##ope":2034,"##ham":2035,"anne":2036,"##arch":2037,"piece":2038,"gall":2039,"##dd":2040,"shout":2041,"gaz":2042,"complete":2043,"##eness":2044,"horses":2045,"##ges":2046,"guard":2047,"wide":2048,"started":2049,"doll":2050,"##cially":2051,"whisper":2052,"forget":2053,"palace":2054,"##isted":2055,"lift":2056,"##erv":2057,"fun":2058,"##uc":2059,"yell":2060,"##cial":2061,"talking":2062,"imm":2063,"service":2064,"impossible":2065,"week":2066,"mess":2067,"##nding":2068,"deg":2069,"stop":2070,"##let":2071,"difficult":2072,"society":2073,"##reme":2074,"effort":2075,"hy":2076,"grave":2077,"path":2078,"weak":2079,"narr":2080,"incre":2081,"demand":2082,"shut":2083,"army":2084,"teach":2085,"##fer":2086,"cloud":2087,"corner":2088,"nine":2089,"##unk":2090,"##ended":2091,"turning":2092,"sky":2093,"##ency":2094,"##olog":2095,"mass":2096,"##ivid":2097,"below":2098,"dw":2099,"single":2100,"##asure":2101,"fly":2102,"##cell":2103,"opinion":2104,"ori":2105,"aftern":2106,"trust":2107,"lang":2108,"occup":2109,"recogn":2110,"gun":2111,"outside":2112,"bro":2113,"##uit":2114,"nin":2115,"sin":2116,"ant":2117,"kiss":2118,"couldn":2119,"west":2120,"beat":2121,"appearance":2122,"##ises":2123,"conn":2124,"silver":2125,"mention":2126,"running":2127,"conversation":2128,"greater":2129,"espe":2130,"##ror":2131,"showed":2132,"winter":2133,"fash":2134,"clothes":2135,"##ection":2136,"##ourage":2137,"appar":2138,"##ork":2139,"##ases":2140,"mark":2141,"arrived":2142,"hun":2143,"sand":2144,"music":2145,"peter":2146,"une":2147,"spot":2148,"##ories":2149,"##fection":2150,"married":2151,"presence":2152,"morrow":2153,"compl":2154,"sor":2155,"wished":2156,"##anch":2157,"usual":2158,"suffic":2159,"former":2160,"giving":2161,"eager":2162,"probably":2163,"neg":2164,"##aped":2165,"sym":2166,"battle":2167,"##itation":2168,"simple":2169,"expression":2170,"months":2171,"covered":2172,"afternoon":2173,"pun":2174,"relig":2175,"admir":2176,"pet":2177,"##rief":2178,"states":2179,"moved":2180,"chapter":2181,"cab":2182,"pop":2183,"silent":2184,"speaking":2185,"##pic":2186,"tur":2187,"instant":2188,"beginning":2189,"phys":2190,"occur":2191,"mel":2192,"stream":2193,"polit":2194,"easily":2195,"##light":2196,"##unity":2197,"sick":2198,"##ald":2199,"concl":2200,"tender":2201,"enjoy":2202,"influ":2203,"jew":2204,"duty":2205,"twelve":2206,"pleasant":2207,"##ract":2208,"figure":2209,"fashion":2210,"vol":2211,"thor":2212,"raised":2213,"##oop":2214,"scarcely":2215,"##ze":2216,"conscious":2217,"terrible":2218,"minute":2219,"pale":2220,"kill":2221,"leaving":2222,"fut":2223,"threw":2224,"marry":2225,"##yal":2226,"expected":2227,"tall":2228,"forty":2229,"temper":2230,"according":2231,"##ature":2232,"sword":2233,"attack":2234,"flowers":2235,"oblig":2236,"##zz":2237,"stick":2238,"##cked":2239,"trying":2240,"learn":2241,"##uel":2242,"train":2243,"iron":2244,"rapid":2245,"##amb":2246,"places":2247,"learned":2248,"especially":2249,"killed":2250,"isn":2251,"star":2252,"##ipped":2253,"##orted":2254,"purs":2255,"direction":2256,"surprise":2257,"entirely":2258,"##wise":2259,"bread":2260,"office":2261,"evil":2262,"consequ":2263,"written":2264,"##ibly":2265,"##orth":2266,"exh":2267,"write":2268,"condition":2269,"ladies":2270,"action":2271,"##mit":2272,"happiness":2273,"##ding":2274,"##ounds":2275,"note":2276,"books":2277,"##aled":2278,"##jo":2279,"fal":2280,"id":2281,"wonderful":2282,"decided":2283,"golden":2284,"langu":2285,"unless":2286,"geor":2287,"bott":2288,"##io":2289,"perfectly":2290,"sail":2291,"##uous":2292,"shook":2293,"##ume":2294,"##ech":2295,"closed":2296,"steps":2297,"broad":2298,"merely":2299,"##osing":2300,"##atic":2301,"enemy":2302,"history":2303,"latter":2304,"wise":2305,"understood":2306,"prev":2307,"gar":2308,"wouldn":2309,"simply":2310,"sole":2311,"##onel":2312,"bow":2313,"shot":2314,"##gan":2315,"middle":2316,"##ital":2317,"utter":2318,"tast":2319,"sav":2320,"changed":2321,"reply":2322,"ring":2323,"##fast":2324,"##gress":2325,"suc":2326,"summer":2327,"board":2328,"succeed":2329,"grass":2330,"##retched":2331,"experience":2332,"##uted":2333,"afterwards":2334,"lying":2335,"##osp":2336,"marriage":2337,"repres":2338,"finally":2339,"broke":2340,"fortune":2341,"situ":2342,"excell":2343,"observed":2344,"##cies":2345,"deser":2346,"sharp":2347,"trave":2348,"journey":2349,"mir":2350,"lean":2351,"bitter":2352,"cou":2353,"fit":2354,"wit":2355,"earn":2356,"persons":2357,"rain":2358,"##lling":2359,"calm":2360,"##ected":2361,"clim":2362,"oper":2363,"listen":2364,"liber":2365,"##olute":2366,"beneath":2367,"##ouses":2368,"pocket":2369,"origin":2370,"lives":2371,"##cience":2372,"##acy":2373,"repeated":2374,"tail":2375,"passion":2376,"ven":2377,"##oses":2378,"escape":2379,"dar":2380,"##mn":2381,"whe":2382,"gate":2383,"mut":2384,"hes":2385,"##str":2386,"madame":2387,"famil":2388,"ow":2389,"becom":2390,"health":2391,"sorry":2392,"allowed":2393,"empl":2394,"##ivers":2395,"dick":2396,"dan":2397,"ign":2398,"habit":2399,"furn":2400,"##ec":2401,"##under":2402,"firm":2403,"##ission":2404,"strugg":2405,"##ples":2406,"future":2407,"spite":2408,"cand":2409,"##reh":2410,"##umed":2411,"passing":2412,"separ":2413,"sett":2414,"circumstances":2415,"pleased":2416,"loud":2417,"magn":2418,"letters":2419,"civ":2420,"corr":2421,"nice":2422,"darkness":2423,"disappear":2424,"##come":2425,"tea":2426,"important":2427,"sigh":2428,"presently":2429,"dressed":2430,"##erable":2431,"spread":2432,"walls":2433,"discovered":2434,"worse":2435,"apart":2436,"wand":2437,"disg":2438,"nation":2439,"legs":2440,"delic":2441,"blind":2442,"extra":2443,"dim":2444,"##ament":2445,"rub":2446,"employ":2447,"dam":2448,"##idently":2449,"cost":2450,"dry":2451,"pack":2452,"virt":2453,"##urs":2454,"game":2455,"##velop":2456,"opport":2457,"hu":2458,"absolute":2459,"##oved":2460,"unh":2461,"arch":2462,"heads":2463,"exactly":2464,"host":2465,"##ina":2466,"beast":2467,"subst":2468,"dropped":2469,"knowing":2470,"shore":2471,"determined":2472,"ves":2473,"##sy":2474,"smiled":2475,"chee":2476,"creature":2477,"seat":2478,"pros":2479,"existence":2480,"yellow":2481,"cla":2482,"wear":2483,"conce":2484,"resp":2485,"promise":2486,"major":2487,"storm":2488,"notice":2489,"priest":2490,"##esty":2491,"motion":2492,"##ishment":2493,"ears":2494,"cous":2495,"press":2496,"##anging":2497,"arg":2498,"##que":2499,"leaves":2500,"fixed":2501,"##ours":2502,"cook":2503,"mount":2504,"vent":2505,"pick":2506,"ur":2507,"assist":2508,"##iod":2509,"##lend":2510,"##enth":2511,"nobody":2512,"bottom":2513,"##ument":2514,"individ":2515,"bag":2516,"##iety":2517,"intellig":2518,"houses":2519,"##anc":2520,"##ashed":2521,"considered":2522,"dom":2523,"##action":2524,"##rel":2525,"stir":2526,"suit":2527,"cho":2528,"##ulty":2529,"empt":2530,"advant":2531,"##amber":2532,"tired":2533,"castle":2534,"##cent":2535,"cheer":2536,"lou":2537,"##my":2538,"##pan":2539,"wrote":2540,"estab":2541,"frequ":2542,"##path":2543,"##idge":2544,"birds":2545,"faint":2546,"ones":2547,"luck":2548,"drawing":2549,"vall":2550,"##inite":2551,"honor":2552,"fla":2553,"impress":2554,"song":2555,"##istr":2556,"speech":2557,"clean":2558,"various":2559,"##ires":2560,"shadow":2561,"mal":2562,"noble":2563,"touch":2564,"village":2565,"splend":2566,"paid":2567,"allow":2568,"affect":2569,"##rodu":2570,"##go":2571,"somewh":2572,"breakfast":2573,"declared":2574,"##zen":2575,"believed":2576,"##cil":2577,"##ays":2578,"extreme":2579,"judge":2580,"aston":2581,"somewhat":2582,"individual":2583,"##ayed":2584,"moder":2585,"lower":2586,"agree":2587,"parts":2588,"jane":2589,"royal":2590,"drop":2591,"tow":2592,"ham":2593,"describ":2594,"mod":2595,"period":2596,"##uded":2597,"remembered":2598,"shr":2599,"comb":2600,"custom":2601,"greatest":2602,"animal":2603,"perform":2604,"scene":2605,"revol":2606,"drawn":2607,"difficulty":2608,"soldiers":2609,"influence":2610,"##iny":2611,"##ests":2612,"prevent":2613,"##ron":2614,"ways":2615,"surely":2616,"ancient":2617,"likely":2618,"destro":2619,"##nes":2620,"looks":2621,"angry":2622,"##ator":2623,"##itary":2624,"sake":2625,"evidently":2626,"holding":2627,"jul":2628,"inj":2629,"proud":2630,"colonel":2631,"laws":2632,"attend":2633,"courage":2634,"harm":2635,"pot":2636,"##anted":2637,"mort":2638,"##head":2639,"picture":2640,"horr":2641,"##ption":2642,"murder":2643,"troub":2644,"spoken":2645,"##cise":2646,"##bing":2647,"##ision":2648,"watched":2649,"burst":2650,"##ium":2651,"shop":2652,"anxious":2653,"scr":2654,"finished":2655,"east":2656,"inside":2657,"ideas":2658,"fifteen":2659,"agre":2660,"dism":2661,"george":2662,"civil":2663,"henry":2664,"fol":2665,"mater":2666,"constit":2667,"space":2668,"formed":2669,"fallen":2670,"thin":2671,"goes":2672,"surf":2673,"##iently":2674,"fail":2675,"social":2676,"baby":2677,"gentlemen":2678,"private":2679,"fancy":2680,"carriage":2681,"kne":2682,"advent":2683,"ourselves":2684,"waited":2685,"lot":2686,"speed":2687,"##itive":2688,"servant":2689,"wine":2690,"noise":2691,"pecul":2692,"william":2693,"meth":2694,"vessel":2695,"##na":2696,"tong":2697,"grou":2698,"windows":2699,"obliged":2700,"bal":2701,"commun":2702,"guess":2703,"ice":2704,"jim":2705,"flor":2706,"##gged":2707,"favor":2708,"vain":2709,"##otion":2710,"peculiar":2711,"grad":2712,"carefully":2713,"walking":2714,"noticed":2715,"everybody":2716,"narrow":2717,"forgotten":2718,"##iant":2719,"##cks":2720,"stranger":2721,"shoulder":2722,"ta":2723,"##raph":2724,"higher":2725,"promised":2726,"lose":2727,"glance":2728,"property":2729,"hero":2730,"tremb":2731,"cup":2732,"france":2733,"knock":2734,"quietly":2735,"earnest":2736,"##arked":2737,"generally":2738,"american":2739,"exer":2740,"imper":2741,"serious":2742,"pure":2743,"##rop":2744,"##ik":2745,"##osity":2746,"offered":2747,"##iction":2748,"ine":2749,"animals":2750,"bod":2751,"shoulders":2752,"handsome":2753,"dust":2754,"interrupt":2755,"built":2756,"personal":2757,"earl":2758,"sympath":2759,"cow":2760,"recover":2761,"##osite":2762,"affection":2763,"grown":2764,"poet":2765,"distinct":2766,"mam":2767,"##enced":2768,"##stem":2769,"edge":2770,"conduct":2771,"wel":2772,"desce":2773,"##uly":2774,"unk":2775,"##itated":2776,"wasn":2777,"murm":2778,"spent":2779,"skin":2780,"touched":2781,"pier":2782,"faces":2783,"pieces":2784,"jump":2785,"rough":2786,"##over":2787,"gh":2788,"##arily":2789,"##nday":2790,"develop":2791,"suffer":2792,"butter":2793,"whispered":2794,"##ipp":2795,"##ingu":2796,"chamber":2797,"fond":2798,"smo":2799,"surprised":2800,"##oted":2801,"coat":2802,"##isters":2803,"##ables":2804,"weather":2805,"educ":2806,"intellect":2807,"german":2808,"false":2809,"race":2810,"##wood":2811,"system":2812,"eld":2813,"##onsie":2814,"rag":2815,"##how":2816,"wealth":2817,"##aked":2818,"fingers":2819,"mountains":2820,"##key":2821,"opportunity":2822,"fer":2823,"surr":2824,"mach":2825,"##uce":2826,"##ob":2827,"matters":2828,"brave":2829,"frank":2830,"ben":2831,"hol":2832,"##ites":2833,"alar":2834,"companion":2835,"meaning":2836,"lovely":2837,"crown":2838,"sorrow":2839,"##ctions":2840,"bare":2841,"dish":2842,"##ring":2843,"prepared":2844,"##unch":2845,"opposite":2846,"##hern":2847,"gray":2848,"greatly":2849,"cousin":2850,"ris":2851,"inh":2852,"offer":2853,"finding":2854,"introdu":2855,"honour":2856,"avo":2857,"degree":2858,"dare":2859,"lake":2860,"rail":2861,"reading":2862,"quarter":2863,"pan":2864,"writing":2865,"innoc":2866,"##leep":2867,"alto":2868,"breast":2869,"dor":2870,"##ett":2871,"##ilar":2872,"##ounced":2873,"grat":2874,"##attered":2875,"##fortun":2876,"charge":2877,"altogether":2878,"##af":2879,"blow":2880,"feelings":2881,"situation":2882,"fate":2883,"##night":2884,"asleep":2885,"hurt":2886,"caused":2887,"band":2888,"dav":2889,"hide":2890,"alive":2891,"mix":2892,"thrown":2893,"##pected":2894,"profess":2895,"##oned":2896,"memory":2897,"##he":2898,"meeting":2899,"equal":2900,"bent":2901,"wis":2902,"exec":2903,"kingdom":2904,"surface":2905,"loss":2906,"##eal":2907,"##yn":2908,"grey":2909,"cruel":2910,"##ointed":2911,"bush":2912,"ess":2913,"accompan":2914,"fill":2915,"##nds":2916,"defe":2917,"liked":2918,"seek":2919,"swift":2920,"curious":2921,"opening":2922,"duke":2923,"##pet":2924,"parl":2925,"servants":2926,"hath":2927,"sides":2928,"height":2929,"united":2930,"##ibility":2931,"paris":2932,"questions":2933,"wid":2934,"satisfied":2935,"pity":2936,"##ners":2937,"dollars":2938,"ere":2939,"loc":2940,"##aff":2941,"lin":2942,"suspic":2943,"lifted":2944,"empty":2945,"mart":2946,"happen":2947,"ordered":2948,"##ores":2949,"##ara":2950,"yours":2951,"square":2952,"settled":2953,"depend":2954,"unf":2955,"perm":2956,"distingu":2957,"supposed":2958,"laughing":2959,"freed":2960,"talked":2961,"render":2962,"##osop":2963,"rode":2964,"hurry":2965,"papa":2966,"listened":2967,"value":2968,"despair":2969,"labor":2970,"destroy":2971,"##eer":2972,"rejo":2973,"hurried":2974,"rising":2975,"vast":2976,"##ille":2977,"study":2978,"pin":2979,"rise":2980,"forced":2981,"stock":2982,"nose":2983,"telling":2984,"language":2985,"taste":2986,"rul":2987,"serve":2988,"capt":2989,"sufficient":2990,"roof":2991,"##eds":2992,"egg":2993,"tal":2994,"diam":2995,"regular":2996,"building":2997,"frightened":2998,"due":2999,"stat":3000,"distur":3001,"valley":3002,"kitch":3003,"station":3004,"special":3005,"woods":3006,"shape":3007,"fault":3008,"smiling":3009,"##asc":3010,"sacri":3011,"##ushing":3012,"justice":3013,"directly":3014,"philosop":3015,"stairs":3016,"sixty":3017,"watching":3018,"catch":3019,"accompl":3020,"suggest":3021,"material":3022,"impro":3023,"ordinary":3024,"eur":3025,"tit":3026,"usually":3027,"gloom":3028,"passage":3029,"christian":3030,"method":3031,"##bur":3032,"season":3033,"seized":3034,"orders":3035,"honest":3036,"weeks":3037,"ange":3038,"##ify":3039,"prete":3040,"pride":3041,"growing":3042,"doesn":3043,"search":3044,"lines":3045,"bold":3046,"ignor":3047,"##like":3048,"threat":3049,"##chief":3050,"remarked":3051,"supper":3052,"discuss":3053,"##ipe":3054,"##erence":3055,"##uses":3056,"mistress":3057,"gathered":3058,"wed":3059,"nearer":3060,"explain":3061,"bless":3062,"streets":3063,"affairs":3064,"ble":3065,"moving":3066,"##ral":3067,"deb":3068,"##eping":3069,"putting":3070,"##yr":3071,"wash":3072,"march":3073,"prefer":3074,"monsie":3075,"monsieur":3076,"york":3077,"contrary":3078,"por":3079,"##icated":3080,"hole":3081,"imagine":3082,"kitchen":3083,"bir":3084,"cit":3085,"heat":3086,"##imate":3087,"##ishing":3088,"bas":3089,"##min":3090,"##rance":3091,"##hip":3092,"##eder":3093,"receive":3094,"twice":3095,"europe":3096,"possess":3097,"jer":3098,"##aly":3099,"##lin":3100,"deliver":3101,"sacrif":3102,"unw":3103,"pit":3104,"##ole":3105,"##antic":3106,"arth":3107,"working":3108,"favour":3109,"movement":3110,"hills":3111,"##ette":3112,"reck":3113,"pulled":3114,"dign":3115,"lod":3116,"soldier":3117,"##ades":3118,"prove":3119,"##lished":3120,"##usted":3121,"arthur":3122,"proved":3123,"engaged":3124,"possession":3125,"ber":3126,"haven":3127,"observ":3128,"wal":3129,"aside":3130,"stones":3131,"cler":3132,"process":3133,"hence":3134,"##tering":3135,"pra":3136,"instance":3137,"authority":3138,"advantage":3139,"farm":3140,"brothers":3141,"##ception":3142,"flew":3143,"##etic":3144,"##uls":3145,"exte":3146,"difference":3147,"##iding":3148,"ren":3149,"rate":3150,"weight":3151,"solemn":3152,"doors":3153,"fortun":3154,"ol":3155,"flower":3156,"familiar":3157,"rever":3158,"address":3159,"played":3160,"##set":3161,"spect":3162,"holy":3163,"test":3164,"##eav":3165,"ale":3166,"shame":3167,"dogs":3168,"distant":3169,"aware":3170,"interesting":3171,"explained":3172,"thorough":3173,"unkn":3174,"lat":3175,"wore":3176,"sam":3177,"endeav":3178,"bull":3179,"named":3180,"trib":3181,"similar":3182,"busy":3183,"amb":3184,"amount":3185,"color":3186,"liter":3187,"instantly":3188,"moments":3189,"seated":3190,"##theless":3191,"worked":3192,"pard":3193,"##kes":3194,"nevertheless":3195,"emper":3196,"excellent":3197,"measure":3198,"myster":3199,"brit":3200,"##agn":3201,"hearing":3202,"trium":3203,"tongue":3204,"throw":3205,"naturally":3206,"takes":3207,"##ental":3208,"##illa":3209,"confidence":3210,"officer":3211,"wil":3212,"indian":3213,"##cr":3214,"##ulous":3215,"uns":3216,"disappeared":3217,"triumph":3218,"cott":3219,"##itable":3220,"necessity":3221,"splendid":3222,"names":3223,"rank":3224,"vir":3225,"president":3226,"drive":3227,"unknown":3228,"fier":3229,"gods":3230,"represent":3231,"aud":3232,"franc":3233,"univers":3234,"agreed":3235,"##con":3236,"flat":3237,"keeping":3238,"##ague":3239,"aug":3240,"bid":3241,"contain":3242,"smoke":3243,"produced":3244,"bri":3245,"##lv":3246,"terror":3247,"elect":3248,"yester":3249,"artic":3250,"magic":3251,"##vey":3252,"span":3253,"support":3254,"##ails":3255,"##ancho":3256,"witness":3257,"liberty":3258,"dull":3259,"##ford":3260,"thro":3261,"##ulation":3262,"coast":3263,"clever":3264,"companions":3265,"prisoner":3266,"di":3267,"powers":3268,"wicked":3269,"##zy":3270,"amaz":3271,"spirits":3272,"drove":3273,"rare":3274,"##por":3275,"mighty":3276,"evidence":3277,"falling":3278,"stars":3279,"worthy":3280,"yesterday":3281,"##bers":3282,"milk":3283,"particularly":3284,"possibly":3285,"pointed":3286,"diamond":3287,"claim":3288,"sought":3289,"shock":3290,"design":3291,"content":3292,"wants":3293,"cool":3294,"otherwise":3295,"persu":3296,"dwell":3297,"terms":3298,"yield":3299,"eliz":3300,"bask":3301,"acquaint":3302,"knees":3303,"aut":3304,"rat":3305,"officers":3306,"forms":3307,"finger":3308,"occurred":3309,"pair":3310,"travel":3311,"paused":3312,"carrying":3313,"emperor":3314,"gree":3315,"tor":3316,"bob":3317,"ceased":3318,"##ese":3319,"lies":3320,"##umn":3321,"waters":3322,"preser":3323,"teeth":3324,"##ruction":3325,"gle":3326,"hom":3327,"ener":3328,"failed":3329,"required":3330,"gri":3331,"shown":3332,"##soci":3333,"double":3334,"affair":3335,"example":3336,"principle":3337,"unhapp":3338,"pill":3339,"upper":3340,"##iles":3341,"organ":3342,"counten":3343,"report":3344,"america":3345,"fruit":3346,"charles":3347,"softly":3348,"group":3349,"forb":3350,"gives":3351,"possessed":3352,"buy":3353,"singing":3354,"foreign":3355,"der":3356,"shouted":3357,"huge":3358,"inhab":3359,"james":3360,"##race":3361,"##ky":3362,"cases":3363,"##arther":3364,"rooms":3365,"rocks":3366,"##oes":3367,"##asm":3368,"proof":3369,"intended":3370,"excit":3371,"unfortun":3372,"leading":3373,"satisfaction":3374,"succeeded":3375,"fet":3376,"farther":3377,"freedom":3378,"dance":3379,"ga":3380,"arrange":3381,"majesty":3382,"##father":3383,"##erous":3384,"moral":3385,"gently":3386,"##ached":3387,"tele":3388,"hearts":3389,"mentioned":3390,"works":3391,"religion":3392,"neighbour":3393,"associ":3394,"rule":3395,"demanded":3396,"invent":3397,"##angers":3398,"regret":3399,"curi":3400,"seventeen":3401,"progress":3402,"clearly":3403,"ros":3404,"presented":3405,"record":3406,"##ena":3407,"##using":3408,"##mend":3409,"joined":3410,"fairy":3411,"seventy":3412,"smooth":3413,"sheep":3414,"proc":3415,"instinct":3416,"key":3417,"unto":3418,"fourth":3419,"suffering":3420,"cabin":3421,"fully":3422,"vig":3423,"diss":3424,"##ival":3425,"events":3426,"advanced":3427,"hidden":3428,"dreadful":3429,"excitement":3430,"pounds":3431,"##iance":3432,"awful":3433,"card":3434,"##bor":3435,"calling":3436,"voices":3437,"advice":3438,"ban":3439,"sen":3440,"##ker":3441,"stuff":3442,"powerful":3443,"papers":3444,"resolved":3445,"##road":3446,"interested":3447,"afford":3448,"birth":3449,"bath":3450,"grief":3451,"pos":3452,"##sie":3453,"##iments":3454,"shel":3455,"impat":3456,"brill":3457,"shoot":3458,"hither":3459,"interv":3460,"excited":3461,"shining":3462,"aband":3463,"obey":3464,"steam":3465,"edward":3466,"police":3467,"wag":3468,"##pap":3469,"##gen":3470,"undert":3471,"considerable":3472,"cord":3473,"sprang":3474,"ain":3475,"fields":3476,"conditions":3477,"control":3478,"pictures":3479,"bore":3480,"dur":3481,"##mond":3482,"conqu":3483,"cred":3484,"fox":3485,"desired":3486,"ride":3487,"nodd":3488,"served":3489,"fierce":3490,"adam":3491,"##ensive":3492,"ships":3493,"information":3494,"yard":3495,"##istic":3496,"smith":3497,"indians":3498,"paul":3499,"needed":3500,"perceived":3501,"sooner":3502,"importance":3503,"cart":3504,"hosp":3505,"asse":3506,"feather":3507,"crit":3508,"##ternal":3509,"##ois":3510,"##isc":3511,"share":3512,"memb":3513,"anybody":3514,"##inal":3515,"##asons":3516,"iss":3517,"##illy":3518,"##ortion":3519,"fold":3520,"stead":3521,"merch":3522,"salt":3523,"type":3524,"couple":3525,"absolutely":3526,"bay":3527,"task":3528,"##asant":3529,"willing":3530,"##room":3531,"devil":3532,"imagination":3533,"citiz":3534,"curiosity":3535,"##get":3536,"sunday":3537,"suffered":3538,"rad":3539,"##hold":3540,"env":3541,"occupied":3542,"countenance":3543,"##llen":3544,"dawn":3545,"apparently":3546,"actually":3547,"completely":3548,"mult":3549,"##ancy":3550,"betr":3551,"##ension":3552,"regarded":3553,"welcome":3554,"##pir":3555,"myst":3556,"##asped":3557,"dying":3558,"ep":3559,"refused":3560,"daily":3561,"suggested":3562,"extraord":3563,"yo":3564,"reb":3565,"alas":3566,"crime":3567,"accident":3568,"bodies":3569,"inquir":3570,"modern":3571,"##uced":3572,"##abel":3573,"##iot":3574,"feat":3575,"whenever":3576,"elsie":3577,"slave":3578,"superior":3579,"hate":3580,"mile":3581,"oce":3582,"##with":3583,"rapidly":3584,"pardon":3585,"brief":3586,"##alous":3587,"thanks":3588,"flesh":3589,"horror":3590,"gain":3591,"##ulf":3592,"brain":3593,"event":3594,"stepped":3595,"professor":3596,"cottage":3597,"dun":3598,"jes":3599,"excl":3600,"club":3601,"flight":3602,"corre":3603,"buck":3604,"odd":3605,"sour":3606,"shell":3607,"##acle":3608,"drag":3609,"barb":3610,"##ainted":3611,"##ization":3612,"driven":3613,"crossed":3614,"ninet":3615,"size":3616,"worst":3617,"##ips":3618,"points":3619,"midst":3620,"lack":3621,"nay":3622,"science":3623,"##ha":3624,"##gment":3625,"truly":3626,"lands":3627,"august":3628,"cult":3629,"equally":3630,"education":3631,"park":3632,"picked":3633,"##com":3634,"##thus":3635,"trade":3636,"instr":3637,"relations":3638,"tempt":3639,"hotel":3640,"cell":3641,"rushed":3642,"san":3643,"taught":3644,"store":3645,"nob":3646,"##ishop":3647,"##ability":3648,"interp":3649,"expressed":3650,"foolish":3651,"political":3652,"sty":3653,"resist":3654,"resem":3655,"anger":3656,"dozen":3657,"sylv":3658,"cath":3659,"tight":3660,"crim":3661,"dangerous":3662,"hunting":3663,"interrupted":3664,"##hy":3665,"worn":3666,"remarkable":3667,"thorn":3668,"##ially":3669,"##now":3670,"meat":3671,"belief":3672,"asking":3673,"dreams":3674,"mistake":3675,"delighted":3676,"members":3677,"pu":3678,"##ading":3679,"obst":3680,"behold":3681,"benef":3682,"gradually":3683,"sisters":3684,"sixteen":3685,"ken":3686,"keen":3687,"moreover":3688,"artagn":3689,"artagnan":3690,"cere":3691,"nerv":3692,"oak":3693,"##esp":3694,"##aries":3695,"depth":3696,"severe":3697,"enemies":3698,"nap":3699,"##asing":3700,"kindly":3701,"careful":3702,"inquired":3703,"wings":3704,"wounded":3705,"thunder":3706,"##vert":3707,"relief":3708,"eleven":3709,"##ification":3710,"wet":3711,"##for":3712,"plat":3713,"##acity":3714,"lone":3715,"stup":3716,"species":3717,"invol":3718,"cop":3719,"sex":3720,"silk":3721,"exped":3722,"creatures":3723,"physical":3724,"hal":3725,"##lace":3726,"plenty":3727,"newspap":3728,"nur":3729,"##ication":3730,"saf":3731,"##reg":3732,"saved":3733,"recoll":3734,"##racted":3735,"flour":3736,"independ":3737,"lover":3738,"glory":3739,"begun":3740,"##while":3741,"shoes":3742,"hoped":3743,"aim":3744,"##sed":3745,"frequently":3746,"mamma":3747,"sang":3748,"famous":3749,"buried":3750,"princip":3751,"approached":3752,"kat":3753,"bran":3754,"roll":3755,"queer":3756,"distr":3757,"useful":3758,"tot":3759,"proceeded":3760,"##kins":3761,"enthus":3762,"##ocr":3763,"ocean":3764,"enthusi":3765,"##stone":3766,"grim":3767,"harry":3768,"message":3769,"stern":3770,"charming":3771,"drunk":3772,"slept":3773,"loose":3774,"##kin":3775,"ath":3776,"desper":3777,"consciousness":3778,"lamp":3779,"##rant":3780,"##lied":3781,"meas":3782,"accepted":3783,"alex":3784,"aid":3785,"sell":3786,"##aming":3787,"colle":3788,"chest":3789,"precious":3790,"minds":3791,"playing":3792,"fighting":3793,"knife":3794,"union":3795,"indiff":3796,"evident":3797,"##ograph":3798,"hyp":3799,"bot":3800,"##mas":3801,"##acc":3802,"hale":3803,"exceed":3804,"##iana":3805,"capital":3806,"meanwhile":3807,"entrance":3808,"century":3809,"dig":3810,"bew":3811,"arose":3812,"wondered":3813,"magnific":3814,"##iable":3815,"##stand":3816,"stage":3817,"thrust":3818,"forgive":3819,"absence":3820,"burning":3821,"##uments":3822,"capable":3823,"facts":3824,"##ustomed":3825,"hut":3826,"lest":3827,"mour":3828,"mud":3829,"##oops":3830,"removed":3831,"friendship":3832,"closely":3833,"constant":3834,"objects":3835,"neighbor":3836,"horn":3837,"rush":3838,"unex":3839,"virtue":3840,"extraordinary":3841,"alice":3842,"level":3843,"anyone":3844,"indign":3845,"explan":3846,"jealous":3847,"ack":3848,"ug":3849,"somebody":3850,"##itor":3851,"assured":3852,"admit":3853,"recall":3854,"basket":3855,"bon":3856,"thom":3857,"stretched":3858,"##pelled":3859,"everywhere":3860,"plant":3861,"increased":3862,"kissed":3863,"ahead":3864,"strike":3865,"popular":3866,"avoid":3867,"throat":3868,"qual":3869,"retreat":3870,"kindness":3871,"eighty":3872,"wishes":3873,"trembling":3874,"assemb":3875,"acknow":3876,"fever":3877,"contempt":3878,"larger":3879,"grandfather":3880,"clouds":3881,"sympathy":3882,"ghost":3883,"hind":3884,"russ":3885,"##pher":3886,"choose":3887,"##oused":3888,"highest":3889,"accordingly":3890,"grant":3891,"emp":3892,"##izing":3893,"tar":3894,"frag":3895,"awa":3896,"##cription":3897,"wheel":3898,"ara":3899,"##oe":3900,"##nal":3901,"fro":3902,"pressed":3903,"miserable":3904,"begged":3905,"notes":3906,"governor":3907,"slaves":3908,"choice":3909,"remind":3910,"##oking":3911,"military":3912,"listening":3913,"impression":3914,"nurse":3915,"##iber":3916,"reve":3917,"deck":3918,"##elt":3919,"ended":3920,"innocent":3921,"hadn":3922,"##igned":3923,"waves":3924,"arrival":3925,"informed":3926,"becomes":3927,"##gu":3928,"spo":3929,"excuse":3930,"experi":3931,"divine":3932,"flying":3933,"bought":3934,"ly":3935,"wra":3936,"reward":3937,"manage":3938,"marked":3939,"blank":3940,"confess":3941,"acquaintance":3942,"et":3943,"indust":3944,"join":3945,"visible":3946,"crying":3947,"ashamed":3948,"weary":3949,"lights":3950,"hungry":3951,"##stairs":3952,"stories":3953,"##estic":3954,"smell":3955,"##astic":3956,"##aker":3957,"##umber":3958,"##abeth":3959,"throughout":3960,"baron":3961,"sounds":3962,"bowed":3963,"amid":3964,"somewhere":3965,"scream":3966,"delicate":3967,"mysterious":3968,"curr":3969,"uneas":3970,"unhappy":3971,"bos":3972,"caut":3973,"##orious":3974,"##ancing":3975,"dignity":3976,"elizabeth":3977,"stupid":3978,"pow":3979,"##ldom":3980,"stiff":3981,"comr":3982,"advance":3983,"judgment":3984,"immense":3985,"gay":3986,"tis":3987,"##ilst":3988,"unable":3989,"goods":3990,"hollow":3991,"prompt":3992,"temple":3993,"understanding":3994,"elder":3995,"spark":3996,"remains":3997,"virgin":3998,"ox":3999,"bridge":4000,"project":4001,"##onscious":4002,"lighted":4003,"parents":4004,"thoroughly":4005,"cher":4006,"weap":4007,"infinite":4008,"admitted":4009,"comfortable":4010,"safety":4011,"rome":4012,"##pse":4013,"hers":4014,"price":4015,"emotion":4016,"settle":4017,"returning":4018,"escaped":4019,"pushed":4020,"##anges":4021,"appears":4022,"plainly":4023,"convin":4024,"hopes":4025,"intelligence":4026,"vic":4027,"wound":4028,"bearing":4029,"seldom":4030,"sup":4031,"unus":4032,"##inging":4033,"meal":4034,"contem":4035,"helped":4036,"hint":4037,"intention":4038,"horri":4039,"##ology":4040,"david":4041,"##ora":4042,"##ulated":4043,"thinks":4044,"becoming":4045,"##isher":4046,"fem":4047,"rope":4048,"fellows":4049,"displ":4050,"##gypt":4051,"exhib":4052,"egypt":4053,"##mother":4054,"skill":4055,"secure":4056,"tied":4057,"##ential":4058,"whence":4059,"friendly":4060,"religious":4061,"prospect":4062,"##ids":4063,"extent":4064,"original":4065,"eating":4066,"mood":4067,"##ville":4068,"##irm":4069,"##achel":4070,"minister":4071,"colour":4072,"billy":4073,"eagerly":4074,"cheeks":4075,"patient":4076,"arranged":4077,"million":4078,"faithful":4079,"concerned":4080,"ease":4081,"##orous":4082,"whilst":4083,"waste":4084,"bride":4085,"wolf":4086,"##ceiving":4087,"fairly":4088,"provided":4089,"practice":4090,"concerning":4091,"maiden":4092,"eggs":4093,"##iven":4094,"##yer":4095,"##bb":4096,"##iture":4097,"recom":4098,"hastily":4099,"tale":4100,"tiny":4101,"yards":4102,"ate":4103,"##ointment":4104,"violent":4105,"features":4106,"hans":4107,"pear":4108,"sons":4109,"##rees":4110,"trick":4111,"somehow":4112,"fled":4113,"mental":4114,"pink":4115,"##right":4116,"washing":4117,"gro":4118,"older":4119,"accustomed":4120,"unconscious":4121,"roman":4122,"constitution":4123,"inhabit":4124,"branches":4125,"bishop":4126,"hunt":4127,"##aud":4128,"supply":4129,"engage":4130,"##ailed":4131,"constantly":4132,"substance":4133,"vague":4134,"##illing":4135,"amuse":4136,"obtain":4137,"greet":4138,"uncom":4139,"corresp":4140,"correspond":4141,"wes":4142,"slipped":4143,"proportion":4144,"deeply":4145,"nodded":4146,"cave":4147,"##reci":4148,"bee":4149,"partly":4150,"laughter":4151,"portion":4152,"established":4153,"crew":4154,"rust":4155,"wholly":4156,"fee":4157,"log":4158,"consideration":4159,"##ration":4160,"hell":4161,"##oms":4162,"spare":4163,"coach":4164,"joe":4165,"lonely":4166,"lion":4167,"nut":4168,"##ws":4169,"cliff":4170,"adop":4171,"##lessly":4172,"helen":4173,"merry":4174,"signs":4175,"prepar":4176,"gaze":4177,"exha":4178,"struggle":4179,"christmas":4180,"uttered":4181,"treated":4182,"efforts":4183,"##ffe":4184,"withd":4185,"mead":4186,"scot":4187,"glanced":4188,"sylvia":4189,"hanging":4190,"##ax":4191,"##bits":4192,"##very":4193,"feast":4194,"emer":4195,"haste":4196,"savage":4197,"resemb":4198,"fought":4199,"gained":4200,"compar":4201,"establish":4202,"##ators":4203,"sha":4204,"##chan":4205,"quant":4206,"glim":4207,"consent":4208,"mercy":4209,"tower":4210,"dared":4211,"prim":4212,"winds":4213,"victory":4214,"consequence":4215,"##oul":4216,"image":4217,"scra":4218,"indul":4219,"restr":4220,"purch":4221,"patience":4222,"principles":4223,"rab":4224,"##field":4225,"##ka":4226,"##utions":4227,"obv":4228,"conscience":4229,"sout":4230,"##eem":4231,"pred":4232,"exch":4233,"troops":4234,"repro":4235,"invest":4236,"circle":4237,"entertain":4238,"brilliant":4239,"jose":4240,"row":4241,"sink":4242,"beard":4243,"##lect":4244,"##urd":4245,"##vere":4246,"setting":4247,"mont":4248,"employed":4249,"ming":4250,"##well":4251,"feared":4252,"handed":4253,"active":4254,"rolled":4255,"boots":4256,"obtained":4257,"amongst":4258,"rage":4259,"##aval":4260,"warri":4261,"trail":4262,"profession":4263,"forehead":4264,"jumped":4265,"distinguished":4266,"##ture":4267,"##ourse":4268,"clo":4269,"##cip":4270,"##udd":4271,"relation":4272,"anxiety":4273,"encoun":4274,"bol":4275,"sank":4276,"##ode":4277,"stared":4278,"bringing":4279,"discovery":4280,"match":4281,"murmured":4282,"bree":4283,"##ural":4284,"gazed":4285,"##fl":4286,"sac":4287,"trad":4288,"treasure":4289,"bottle":4290,"rig":4291,"##ashing":4292,"print":4293,"loving":4294,"swim":4295,"instru":4296,"guil":4297,"lux":4298,"approaching":4299,"hang":4300,"pig":4301,"rum":4302,"sar":4303,"##atherine":4304,"protest":4305,"lan":4306,"pir":4307,"waist":4308,"nervous":4309,"guilty":4310,"ach":4311,"iv":4312,"##aling":4313,"flung":4314,"subs":4315,"suspicion":4316,"tort":4317,"theory":4318,"reasons":4319,"managed":4320,"throne":4321,"member":4322,"nineteen":4323,"ugly":4324,"od":4325,"preced":4326,"bade":4327,"wretched":4328,"##ols":4329,"desert":4330,"##rit":4331,"##utation":4332,"shone":4333,"showing":4334,"appreh":4335,"##acles":4336,"relie":4337,"addressed":4338,"thousands":4339,"admiration":4340,"unl":4341,"farmer":4342,"native":4343,"dancing":4344,"sacrifice":4345,"style":4346,"apr":4347,"condem":4348,"##more":4349,"misery":4350,"protect":4351,"troubled":4352,"kings":4353,"spend":4354,"shadows":4355,"angel":4356,"sher":4357,"swall":4358,"kinds":4359,"interests":4360,"wisdom":4361,"ner":4362,"##ses":4363,"##urity":4364,"wooden":4365,"trial":4366,"ay":4367,"ja":4368,"manif":4369,"flash":4370,"precise":4371,"##ivity":4372,"needs":4373,"sensible":4374,"principal":4375,"cam":4376,"nest":4377,"blame":4378,"hit":4379,"sear":4380,"block":4381,"spec":4382,"musc":4383,"ninety":4384,"described":4385,"lunch":4386,"whist":4387,"proposed":4388,"robin":4389,"reven":4390,"voy":4391,"refuse":4392,"stands":4393,"##atory":4394,"##upon":4395,"lucy":4396,"melancho":4397,"melancholy":4398,"pause":4399,"##ams":4400,"novel":4401,"##osen":4402,"grate":4403,"credit":4404,"sacred":4405,"grie":4406,"worship":4407,"appreci":4408,"resumed":4409,"compreh":4410,"trif":4411,"utterly":4412,"mounted":4413,"energy":4414,"cas":4415,"wing":4416,"##ulse":4417,"enorm":4418,"unb":4419,"everyone":4420,"engine":4421,"produce":4422,"national":4423,"extremely":4424,"##othing":4425,"manners":4426,"armed":4427,"require":4428,"solid":4429,"correct":4430,"explanation":4431,"##xed":4432,"##ndy":4433,"household":4434,"max":4435,"useless":4436,"schem":4437,"request":4438,"departure":4439,"chosen":4440,"sport":4441,"highly":4442,"follows":4443,"illust":4444,"delightful":4445,"recognized":4446,"respons":4447,"british":4448,"mystery":4449,"##icate":4450,"dece":4451,"exercise":4452,"joseph":4453,"ech":4454,"leap":4455,"distress":4456,"rested":4457,"drift":4458,"slightly":4459,"bark":4460,"nort":4461,"pipe":4462,"ward":4463,"philip":4464,"council":4465,"aven":4466,"##fall":4467,"##onstr":4468,"forces":4469,"flood":4470,"attract":4471,"refer":4472,"vision":4473,"victim":4474,"agreeable":4475,"gest":4476,"##col":4477,"intense":4478,"commission":4479,"ends":4480,"directed":4481,"concern":4482,"knights":4483,"lit":4484,"##uing":4485,"careless":4486,"observe":4487,"figures":4488,"jesus":4489,"unexpected":4490,"southern":4491,"pour":4492,"torn":4493,"convent":4494,"sentence":4495,"continue":4496,"centre":4497,"sighed":4498,"catherine":4499,"stret":4500,"aloud":4501,"profound":4502,"##umbled":4503,"affected":4504,"parliam":4505,"##conom":4506,"##vereign":4507,"gown":4508,"shaking":4509,"atm":4510,"sovereign":4511,"unp":4512,"##ella":4513,"composed":4514,"singular":4515,"riding":4516,"accompanied":4517,"##rated":4518,"haw":4519,"bye":4520,"feed":4521,"brow":4522,"confusion":4523,"sentiment":4524,"mistaken":4525,"medic":4526,"assistance":4527,"recovered":4528,"horrible":4529,"atmosp":4530,"econom":4531,"wake":4532,"poison":4533,"##uding":4534,"swept":4535,"previous":4536,"louis":4537,"shade":4538,"phr":4539,"refr":4540,"absor":4541,"absurd":4542,"labour":4543,"cheerful":4544,"surrounded":4545,"ling":4546,"connection":4547,"adj":4548,"dise":4549,"attitude":4550,"younger":4551,"immediate":4552,"cheek":4553,"wedding":4554,"magnificent":4555,"convinced":4556,"lam":4557,"##lot":4558,"orn":4559,"genius":4560,"subjects":4561,"complex":4562,"brid":4563,"locked":4564,"strict":4565,"inclined":4566,"aust":4567,"prud":4568,"duties":4569,"market":4570,"leaning":4571,"stair":4572,"guide":4573,"breaking":4574,"polic":4575,"banks":4576,"ragged":4577,"unfortunate":4578,"college":4579,"fil":4580,"nurs":4581,"##ales":4582,"pron":4583,"handker":4584,"countess":4585,"##board":4586,"senses":4587,"fleet":4588,"ident":4589,"revolution":4590,"rele":4591,"sees":4592,"trot":4593,"proble":4594,"awake":4595,"midnight":4596,"stayed":4597,"sufficiently":4598,"handkerchief":4599,"##ev":4600,"##zing":4601,"##isions":4602,"loves":4603,"curtain":4604,"admin":4605,"connected":4606,"praise":4607,"bosom":4608,"##atched":4609,"frame":4610,"plans":4611,"desir":4612,"horiz":4613,"souls":4614,"striking":4615,"guns":4616,"pierre":4617,"permitted":4618,"rib":4619,"##edy":4620,"faced":4621,"plate":4622,"reader":4623,"reality":4624,"devoted":4625,"utmost":4626,"craw":4627,"prayer":4628,"gift":4629,"##ped":4630,"glo":4631,"ruin":4632,"ax":4633,"page":4634,"##zed":4635,"asce":4636,"##owned":4637,"##igg":4638,"##ounce":4639,"collect":4640,"increase":4641,"argument":4642,"merchant":4643,"alexand":4644,"nons":4645,"##eld":4646,"##iqu":4647,"##inate":4648,"##arf":4649,"sugar":4650,"coffe":4651,"parties":4652,"instit":4653,"sounded":4654,"negro":4655,"parliament":4656,"cities":4657,"theat":4658,"##iform":4659,"intent":4660,"reser":4661,"nights":4662,"addition":4663,"wondering":4664,"sleeping":4665,"straw":4666,"announced":4667,"prosper":4668,"astonishment":4669,"machine":4670,"nich":4671,"pil":4672,"scen":4673,"delay":4674,"valu":4675,"reflect":4676,"inhabitants":4677,"##bury":4678,"##alt":4679,"treas":4680,"##ox":4681,"##can":4682,"##inent":4683,"sob":4684,"##plic":4685,"conclusion":4686,"fisher":4687,"mich":4688,"##oll":4689,"##fied":4690,"appointed":4691,"gets":4692,"guests":4693,"divided":4694,"destroyed":4695,"ral":4696,"tos":4697,"commanded":4698,"acquainted":4699,"coffee":4700,"pian":4701,"##gue":4702,"mechan":4703,"deliber":4704,"raise":4705,"doubtless":4706,"privile":4707,"degrees":4708,"ignorant":4709,"tad":4710,"##win":4711,"offe":4712,"lock":4713,"afterward":4714,"guest":4715,"beheld":4716,"crack":4717,"darling":4718,"alarm":4719,"##liness":4720,"##ived":4721,"##kind":4722,"##sey":4723,"##char":4724,"soil":4725,"##keep":4726,"impr":4727,"practical":4728,"folk":4729,"##lebr":4730,"##ghter":4731,"##ilities":4732,"appeal":4733,"tend":4734,"steep":4735,"thirst":4736,"sharply":4737,"concluded":4738,"risk":4739,"easter":4740,"##rate":4741,"##aces":4742,"##pless":4743,"causes":4744,"bul":4745,"intend":4746,"quality":4747,"travell":4748,"katy":4749,"nonsense":4750,"dir":4751,"mc":4752,"##bour":4753,"##lected":4754,"##uries":4755,"arist":4756,"strain":4757,"emph":4758,"retired":4759,"muttered":4760,"adventure":4761,"##omp":4762,"##cher":4763,"contained":4764,"scorn":4765,"quarters":4766,"reflection":4767,"scient":4768,"chim":4769,"libr":4770,"##quis":4771,"leaf":4772,"puzz":4773,"district":4774,"june":4775,"##mber":4776,"assure":4777,"realized":4778,"celebr":4779,"belonged":4780,"improve":4781,"cig":4782,"##atives":4783,"##uten":4784,"charm":4785,"julia":4786,"bones":4787,"##mith":4788,"##pent":4789,"##non":4790,"shake":4791,"conven":4792,"lev":4793,"subm":4794,"physic":4795,"intellectual":4796,"surround":4797,"aver":4798,"##arse":4799,"hay":4800,"spl":4801,"overt":4802,"punishment":4803,"universal":4804,"atmosphere":4805,"##nders":4806,"##icip":4807,"chin":4808,"ages":4809,"##elia":4810,"plun":4811,"invited":4812,"local":4813,"extended":4814,"fid":4815,"##iation":4816,"##itate":4817,"throwing":4818,"prec":4819,"numerous":4820,"properly":4821,"troubles":4822,"rendered":4823,"##add":4824,"##ulted":4825,"job":4826,"crept":4827,"firmly":4828,"descended":4829,"tables":4830,"##gl":4831,"shows":4832,"##unted":4833,"uniform":4834,"robert":4835,"anywhere":4836,"maybe":4837,"compass":4838,"commer":4839,"polite":4840,"entering":4841,"successful":4842,"detect":4843,"difficulties":4844,"deserted":4845,"leaned":4846,"candle":4847,"separate":4848,"##isp":4849,"##iday":4850,"track":4851,"obsc":4852,"protection":4853,"lieuten":4854,"arab":4855,"enormous":4856,"leis":4857,"##udes":4858,"##enger":4859,"sunsh":4860,"movements":4861,"astonished":4862,"introduced":4863,"thomas":4864,"unusual":4865,"base":4866,"rang":4867,"range":4868,"wept":4869,"repub":4870,"calcul":4871,"nations":4872,"andrew":4873,"##agger":4874,"ideal":4875,"fatal":4876,"bushes":4877,"##standing":4878,"leisure":4879,"lately":4880,"rout":4881,"##sing":4882,"shed":4883,"##inder":4884,"visited":4885,"violence":4886,"female":4887,"lap":4888,"clos":4889,"nearest":4890,"humble":4891,"sorts":4892,"official":4893,"burned":4894,"sed":4895,"sore":4896,"##uf":4897,"stamp":4898,"ours":4899,"wherever":4900,"republic":4901,"gates":4902,"appet":4903,"bloom":4904,"fourteen":4905,"actions":4906,"startled":4907,"northern":4908,"rude":4909,"##house":4910,"stoop":4911,"stronger":4912,"learning":4913,"sensation":4914,"climbed":4915,"western":4916,"stout":4917,"lawyer":4918,"##cript":4919,"coo":4920,"rays":4921,"isabel":4922,"perpet":4923,"final":4924,"madam":4925,"numbers":4926,"investig":4927,"dart":4928,"##rey":4929,"changes":4930,"##rier":4931,"compelled":4932,"scattered":4933,"##arrass":4934,"ralph":4935,"thread":4936,"mankind":4937,"##olic":4938,"cattle":4939,"title":4940,"gloomy":4941,"forbid":4942,"citizens":4943,"contempl":4944,"habits":4945,"ital":4946,"outl":4947,"likewise":4948,"painful":4949,"richard":4950,"fanci":4951,"hunger":4952,"apartment":4953,"rif":4954,"##ems":4955,"cared":4956,"plants":4957,"##teenth":4958,"trip":4959,"vanished":4960,"vers":4961,"carpet":4962,"hearted":4963,"giant":4964,"actual":4965,"##atively":4966,"details":4967,"gratitude":4968,"accomplished":4969,"reckon":4970,"diana":4971,"pitch":4972,"##lest":4973,"##elle":4974,"obed":4975,"badly":4976,"effects":4977,"embarrass":4978,"slightest":4979,"gla":4980,"kate":4981,"##ico":4982,"alt":4983,"fears":4984,"grasp":4985,"painted":4986,"prisoners":4987,"weakness":4988,"interview":4989,"##oqu":4990,"aspect":4991,"abroad":4992,"##icken":4993,"warning":4994,"veget":4995,"consequently":4996,"empire":4997,"supreme":4998,"oil":4999,"psy":5000,"witch":5001,"staring":5002,"description":5003,"irish":5004,"esteem":5005,"eaten":5006,"resolution":5007,"beaten":5008,"conceal":5009,"francis":5010,"source":5011,"lieutenant":5012,"##onies":5013,"##amm":5014,"##itty":5015,"contri":5016,"swear":5017,"attended":5018,"committed":5019,"countries":5020,"term":5021,"signal":5022,"results":5023,"knocked":5024,"psych":5025,"##ffin":5026,"fifth":5027,"grandmother":5028,"ridic":5029,"jean":5030,"spanish":5031,"hitherto":5032,"instrument":5033,"sunshine":5034,"ruth":5035,"##eenth":5036,"##port":5037,"abrupt":5038,"rod":5039,"marilla":5040,"anna":5041,"mild":5042,"poured":5043,"ray":5044,"##ulate":5045,"##umes":5046,"ard":5047,"string":5048,"helpless":5049,"purple":5050,"steel":5051,"steady":5052,"smaller":5053,"driving":5054,"penet":5055,"spiritual":5056,"widow":5057,"cultiv":5058,"lamb":5059,"leader":5060,"occasions":5061,"crowded":5062,"reflected":5063,"pursued":5064,"folks":5065,"current":5066,"pist":5067,"##inated":5068,"perse":5069,"resc":5070,"exception":5071,"hastened":5072,"examined":5073,"occasionally":5074,"hesitated":5075,"shelter":5076,"qualities":5077,"bord":5078,"neat":5079,"intr":5080,"infer":5081,"trem":5082,"disposition":5083,"counter":5084,"departed":5085,"furniture":5086,"caval":5087,"tent":5088,"##cts":5089,"sof":5090,"##aine":5091,"##unning":5092,"ens":5093,"guards":5094,"squire":5095,"safely":5096,"execution":5097,"observation":5098,"voyage":5099,"dang":5100,"honey":5101,"##acious":5102,"##bly":5103,"##urance":5104,"##ads":5105,"beloved":5106,"attached":5107,"tells":5108,"borne":5109,"florence":5110,"inex":5111,"oliver":5112,"fulf":5113,"mas":5114,"##bre":5115,"excess":5116,"unm":5117,"tristr":5118,"##engers":5119,"craft":5120,"destruction":5121,"wandered":5122,"fancied":5123,"tristram":5124,"cries":5125,"alike":5126,"goodness":5127,"crist":5128,"parted":5129,"check":5130,"continually":5131,"created":5132,"quantity":5133,"valuable":5134,"bern":5135,"##enom":5136,"unple":5137,"disci":5138,"flame":5139,"desk":5140,"proph":5141,"barn":5142,"domestic":5143,"##burg":5144,"gil":5145,"##vation":5146,"intim":5147,"polly":5148,"disposed":5149,"operation":5150,"venture":5151,"walter":5152,"thornton":5153,"cy":5154,"mos":5155,"wave":5156,"##uits":5157,"##cere":5158,"##born":5159,"##att":5160,"##oring":5161,"##icing":5162,"##rily":5163,"##pended":5164,"leather":5165,"##olas":5166,"##icks":5167,"dearest":5168,"complain":5169,"nav":5170,"forever":5171,"chain":5172,"abst":5173,"##ewell":5174,"seriously":5175,"happens":5176,"heavens":5177,"##bow":5178,"committ":5179,"enjoyed":5180,"library":5181,"mouse":5182,"pant":5183,"silly":5184,"##cture":5185,"separated":5186,"flag":5187,"disturbed":5188,"steadily":5189,"piano":5190,"liqu":5191,"phenom":5192,"drank":5193,"ventured":5194,"tax":5195,"dil":5196,"eternal":5197,"rachel":5198,"##ken":5199,"##bon":5200,"##geon":5201,"seeking":5202,"suspect":5203,"repeat":5204,"meantime":5205,"failure":5206,"expedition":5207,"ju":5208,"vac":5209,"##ki":5210,"##otes":5211,"##fulness":5212,"mission":5213,"mode":5214,"swell":5215,"incident":5216,"imagined":5217,"electric":5218,"washington":5219,"ned":5220,"carol":5221,"glit":5222,"calls":5223,"acts":5224,"readily":5225,"lincol":5226,"cigar":5227,"lincoln":5228,"hated":5229,"pine":5230,"pace":5231,"##pes":5232,"##ipping":5233,"tones":5234,"staff":5235,"##verty":5236,"##aks":5237,"someone":5238,"poverty":5239,"dram":5240,"heavily":5241,"islands":5242,"audience":5243,"##rous":5244,"##inity":5245,"beach":5246,"sult":5247,"farewell":5248,"assumed":5249,"insisted":5250,"hundreds":5251,"entreat":5252,"masters":5253,"beasts":5254,"beings":5255,"consist":5256,"attent":5257,"signific":5258,"annoy":5259,"chiefly":5260,"remaining":5261,"powder":5262,"sne":5263,"eyed":5264,"development":5265,"granted":5266,"region":5267,"related":5268,"saddle":5269,"##hen":5270,"##fty":5271,"brush":5272,"applied":5273,"laun":5274,"generous":5275,"disappointed":5276,"dus":5277,"fund":5278,"heap":5279,"abund":5280,"strongly":5281,"burden":5282,"humanity":5283,"daughters":5284,"dressing":5285,"probable":5286,"counsel":5287,"concealed":5288,"describe":5289,"desperate":5290,"##rem":5291,"##ola":5292,"marsh":5293,"holl":5294,"trace":5295,"simon":5296,"classes":5297,"sailor":5298,"manifest":5299,"##ique":5300,"heed":5301,"quiver":5302,"propos":5303,"dragged":5304,"fastened":5305,"attempted":5306,"dwarf":5307,"families":5308,"philosopher":5309,"greek":5310,"virginia":5311,"echo":5312,"cot":5313,"##eral":5314,"tomb":5315,"shy":5316,"shrie":5317,"prize":5318,"##iece":5319,"gracious":5320,"lightning":5321,"coloured":5322,"##ground":5323,"circumstance":5324,"sincere":5325,"anticip":5326,"reproach":5327,"##ault":5328,"##lie":5329,"rights":5330,"reaching":5331,"services":5332,"summon":5333,"drinking":5334,"disturb":5335,"delivered":5336,"abandoned":5337,"gas":5338,"ton":5339,"##isl":5340,"anch":5341,"chuck":5342,"brook":5343,"apple":5344,"emily":5345,"headed":5346,"colored":5347,"definite":5348,"motive":5349,"directions":5350,"acknowled":5351,"exhausted":5352,"dirty":5353,"jen":5354,"pool":5355,"##cast":5356,"##wick":5357,"##worth":5358,"whit":5359,"stuck":5360,"chose":5361,"noon":5362,"leaped":5363,"##quet":5364,"perceive":5365,"permit":5366,"grav":5367,"infant":5368,"estate":5369,"sadly":5370,"pars":5371,"pony":5372,"##inations":5373,"sailed":5374,"##eps":5375,"shouldn":5376,"towns":5377,"dining":5378,"disappointment":5379,"legisl":5380,"cunning":5381,"toby":5382,"convey":5383,"gover":5384,"strangers":5385,"attrib":5386,"satur":5387,"cutting":5388,"suspected":5389,"views":5390,"groan":5391,"italian":5392,"##umble":5393,"cru":5394,"preach":5395,"series":5396,"assert":5397,"propri":5398,"freely":5399,"##umbling":5400,"essential":5401,"enthusiasm":5402,"##smith":5403,"##uge":5404,"weigh":5405,"##arsh":5406,"quarrel":5407,"mortal":5408,"exerc":5409,"platform":5410,"##dered":5411,"##ica":5412,"cock":5413,"overcome":5414,"flow":5415,"finds":5416,"monte":5417,"acted":5418,"chris":5419,"##ourable":5420,"fatig":5421,"growth":5422,"newspaper":5423,"weeping":5424,"chann":5425,"##iel":5426,"outer":5427,"turns":5428,"article":5429,"oath":5430,"##verse":5431,"notion":5432,"wearing":5433,"disag":5434,"lightly":5435,"doctr":5436,"opposition":5437,"histor":5438,"maintain":5439,"gazing":5440,"bitterly":5441,"rules":5442,"washed":5443,"critic":5444,"##iveness":5445,"nicholas":5446,"hed":5447,"##rim":5448,"inher":5449,"knee":5450,"clay":5451,"marble":5452,"slip":5453,"decor":5454,"belongs":5455,"brig":5456,"dragon":5457,"experienced":5458,"achie":5459,"apt":5460,"hook":5461,"non":5462,"zeal":5463,"##work":5464,"branch":5465,"timid":5466,"glorious":5467,"contrib":5468,"consult":5469,"endure":5470,"silently":5471,"duch":5472,"wandering":5473,"gal":5474,"gif":5475,"##ea":5476,"beating":5477,"ench":5478,"owner":5479,"trap":5480,"slee":5481,"variety":5482,"pockets":5483,"hiding":5484,"disgu":5485,"##keeper":5486,"gor":5487,"pound":5488,"wre":5489,"##yard":5490,"flut":5491,"##ression":5492,"desires":5493,"falls":5494,"shortly":5495,"selfish":5496,"apparent":5497,"disease":5498,"jar":5499,"roses":5500,"boats":5501,"reputation":5502,"indiffer":5503,"jun":5504,"ped":5505,"##jud":5506,"thither":5507,"##inction":5508,"beth":5509,"trim":5510,"boast":5511,"slain":5512,"writ":5513,"objection":5514,"volume":5515,"frequent":5516,"trembled":5517,"fetch":5518,"grateful":5519,"tick":5520,"##net":5521,"thine":5522,"whirl":5523,"shield":5524,"shakes":5525,"frog":5526,"afric":5527,"mock":5528,"column":5529,"metal":5530,"recon":5531,"fearful":5532,"deny":5533,"treatment":5534,"respond":5535,"doroth":5536,"mixed":5537,"ambition":5538,"depths":5539,"mingled":5540,"wire":5541,"##uine":5542,"##osure":5543,"misfort":5544,"mischief":5545,"rolling":5546,"tremend":5547,"formerly":5548,"represented":5549,"swiftly":5550,"misfortune":5551,"italy":5552,"flock":5553,"consol":5554,"incon":5555,"lesson":5556,"##ribly":5557,"suggestion":5558,"threatened":5559,"##ares":5560,"fired":5561,"pointing":5562,"invitation":5563,"vessels":5564,"hospital":5565,"tin":5566,"##ien":5567,"rear":5568,"smoking":5569,"monarch":5570,"barbar":5571,"unpleasant":5572,"fasc":5573,"##atch":5574,"toler":5575,"inner":5576,"##ums":5577,"writer":5578,"##asha":5579,"thirteen":5580,"millions":5581,"effic":5582,"poetry":5583,"horizon":5584,"monster":5585,"fury":5586,"cats":5587,"enterpr":5588,"philosophy":5589,"pretended":5590,"benefit":5591,"closer":5592,"bernard":5593,"duck":5594,"fountain":5595,"jan":5596,"pup":5597,"##gest":5598,"sheet":5599,"intimate":5600,"perple":5601,"male":5602,"furnished":5603,"descend":5604,"articles":5605,"bench":5606,"herbert":5607,"cro":5608,"##grat":5609,"encoura":5610,"dismiss":5611,"ignorance":5612,"neighbourhood":5613,"precisely":5614,"sultan":5615,"batter":5616,"mac":5617,"nan":5618,"os":5619,"stable":5620,"anth":5621,"deem":5622,"##olate":5623,"coal":5624,"confident":5625,"wishing":5626,"starting":5627,"acquired":5628,"majority":5629,"maxim":5630,"gesture":5631,"harsh":5632,"sust":5633,"warn":5634,"confused":5635,"incred":5636,"reduced":5637,"touching":5638,"purposes":5639,"mirror":5640,"earlier":5641,"autumn":5642,"cristo":5643,"date":5644,"fed":5645,"##mony":5646,"##uch":5647,"fores":5648,"china":5649,"grin":5650,"smart":5651,"community":5652,"##etera":5653,"eleg":5654,"luc":5655,"hatred":5656,"conviction":5657,"priests":5658,"bewild":5659,"daz":5660,"gw":5661,"ot":5662,"vivid":5663,"heels":5664,"button":5665,"orch":5666,"thence":5667,"beds":5668,"johnson":5669,"roads":5670,"wagon":5671,"ceremony":5672,"scientific":5673,"committee":5674,"jap":5675,"sway":5676,"##ih":5677,"heir":5678,"##ifying":5679,"##coat":5680,"slender":5681,"cheap":5682,"contrast":5683,"opinions":5684,"fant":5685,"##ds":5686,"##isk":5687,"apply":5688,"uncertain":5689,"absent":5690,"characters":5691,"commander":5692,"tyr":5693,"motionless":5694,"##withstanding":5695,"eve":5696,"pac":5697,"notwithstanding":5698,"missed":5699,"swung":5700,"phot":5701,"depri":5702,"schol":5703,"ruff":5704,"teacher":5705,"stirred":5706,"discussion":5707,"scheme":5708,"naked":5709,"##lies":5710,"##otions":5711,"deed":5712,"mans":5713,"worry":5714,"##olen":5715,"impl":5716,"veh":5717,"reform":5718,"visitor":5719,"duchess":5720,"torr":5721,"stom":5722,"albert":5723,"marian":5724,"pole":5725,"blessed":5726,"##acon":5727,"decision":5728,"magistr":5729,"victor":5730,"shooting":5731,"yonder":5732,"problem":5733,"oct":5734,"porth":5735,"##ean":5736,"shepher":5737,"lily":5738,"marve":5739,"prey":5740,"compet":5741,"persist":5742,"insult":5743,"contrad":5744,"venge":5745,"renew":5746,"recollect":5747,"feeble":5748,"bun":5749,"cream":5750,"lust":5751,"rh":5752,"##li":5753,"##case":5754,"##anqu":5755,"inch":5756,"marks":5757,"specul":5758,"norm":5759,"possibility":5760,"declare":5761,"portra":5762,"urged":5763,"francs":5764,"rud":5765,"tun":5766,"reign":5767,"noted":5768,"attain":5769,"peasant":5770,"fires":5771,"regiment":5772,"cheese":5773,"susan":5774,"secretary":5775,"batt":5776,"pressure":5777,"stomach":5778,"bert":5779,"fitted":5780,"##nel":5781,"##gie":5782,"##lla":5783,"shiver":5784,"seas":5785,"enl":5786,"applic":5787,"compared":5788,"interf":5789,"activity":5790,"##actory":5791,"grounds":5792,"experiment":5793,"embra":5794,"distinctly":5795,"multitude":5796,"cetera":5797,"dale":5798,"fest":5799,"tide":5800,"##akened":5801,"trunk":5802,"fac":5803,"boil":5804,"dischar":5805,"##gging":5806,"veil":5807,"considering":5808,"##chester":5809,"independent":5810,"wrapped":5811,"absorbed":5812,"marvel":5813,"spell":5814,"landl":5815,"landed":5816,"deeper":5817,"provisions":5818,"gardens":5819,"sending":5820,"tenderness":5821,"owing":5822,"disgrace":5823,"performed":5824,"earnestly":5825,"inev":5826,"puff":5827,"##asper":5828,"##iring":5829,"##rand":5830,"##agg":5831,"prejud":5832,"jewels":5833,"clerk":5834,"porthos":5835,"bud":5836,"ela":5837,"jaw":5838,"pall":5839,"tub":5840,"##eys":5841,"##upt":5842,"agony":5843,"necessarily":5844,"visitors":5845,"statement":5846,"japan":5847,"idle":5848,"asc":5849,"fred":5850,"prose":5851,"nois":5852,"wrath":5853,"guessed":5854,"gravely":5855,"fashioned":5856,"##ropri":5857,"coward":5858,"scotland":5859,"wives":5860,"##uish":5861,"##lict":5862,"##leness":5863,"ingen":5864,"unre":5865,"##inkled":5866,"repent":5867,"surre":5868,"element":5869,"arrive":5870,"respectable":5871,"wheels":5872,"clergy":5873,"medicine":5874,"wol":5875,"##ino":5876,"##rage":5877,"flatter":5878,"##iverse":5879,"finish":5880,"teaching":5881,"climb":5882,"##ocratic":5883,"rabbit":5884,"cloak":5885,"##isible":5886,"champ":5887,"##erson":5888,"##agon":5889,"harr":5890,"stole":5891,"collar":5892,"modest":5893,"fortunate":5894,"persuaded":5895,"##ael":5896,"inse":5897,"inches":5898,"##sters":5899,"##peare":5900,"##ache":5901,"flashed":5902,"begins":5903,"heartily":5904,"insist":5905,"raising":5906,"irres":5907,"central":5908,"murderer":5909,"withdra":5910,"revenge":5911,"puzzled":5912,"aly":5913,"##inth":5914,"##ata":5915,"tob":5916,"chase":5917,"alter":5918,"advert":5919,"score":5920,"happily":5921,"feels":5922,"decide":5923,"buildings":5924,"pursuit":5925,"eastern":5926,"ire":5927,"##uary":5928,"##we":5929,"##itating":5930,"##rels":5931,"doom":5932,"coin":5933,"pepper":5934,"precip":5935,"remote":5936,"breed":5937,"acting":5938,"insp":5939,"tempor":5940,"solitary":5941,"limbs":5942,"belonging":5943,"moonlight":5944,"drops":5945,"abandon":5946,"damp":5947,"fow":5948,"losing":5949,"rot":5950,"##rence":5951,"##lers":5952,"##lars":5953,"sober":5954,"##ifully":5955,"peril":5956,"childhood":5957,"lively":5958,"dutch":5959,"linen":5960,"blew":5961,"obeyed":5962,"napole":5963,"uneasy":5964,"##raction":5965,"##apt":5966,"aged":5967,"marched":5968,"distinction":5969,"permission":5970,"containing":5971,"scenes":5972,"##off":5973,"chall":5974,"upstairs":5975,"folly":5976,"contents":5977,"passions":5978,"capacity":5979,"##ieth":5980,"buff":5981,"depos":5982,"constru":5983,"regarding":5984,"cease":5985,"germany":5986,"preserved":5987,"bund":5988,"jest":5989,"##kward":5990,"sale":5991,"anyhow":5992,"gran":5993,"consum":5994,"bedroom":5995,"reasonable":5996,"merc":5997,"ashes":5998,"shouting":5999,"intelligent":6000,"literature":6001,"inquiry":6002,"russian":6003,"breeze":6004,"vengeance":6005,"##emon":6006,"whereas":6007,"surv":6008,"awkward":6009,"warriors":6010,"saturday":6011,"disagree":6012,"cake":6013,"eag":6014,"moss":6015,"##back":6016,"conc":6017,"altern":6018,"##ational":6019,"contented":6020,"impulse":6021,"supported":6022,"princes":6023,"prepare":6024,"prayers":6025,"pulling":6026,"gathering":6027,"messenger":6028,"abruptly":6029,"danced":6030,"tip":6031,"##ule":6032,"##opes":6033,"wanting":6034,"norman":6035,"reference":6036,"career":6037,"awoke":6038,"pains":6039,"strangely":6040,"rivers":6041,"encourage":6042,"faded":6043,"##mes":6044,"##anz":6045,"brings":6046,"agent":6047,"anyway":6048,"passengers":6049,"##lessness":6050,"musk":6051,"stopping":6052,"crossing":6053,"preparing":6054,"developed":6055,"plunged":6056,"rav":6057,"shirt":6058,"external":6059,"##osha":6060,"clut":6061,"peas":6062,"confeder":6063,"slavery":6064,"gallery":6065,"attacked":6066,"wander":6067,"louise":6068,"measures":6069,"revealed":6070,"engagement":6071,"fence":6072,"lane":6073,"rent":6074,"tour":6075,"tap":6076,"ult":6077,"twil":6078,"laur":6079,"elements":6080,"jeff":6081,"distinguish":6082,"appetite":6083,"alyosha":6084,"bor":6085,"bind":6086,"kitty":6087,"##inter":6088,"whither":6089,"chairs":6090,"trump":6091,"presents":6092,"waved":6093,"floating":6094,"gallop":6095,"owe":6096,"dimin":6097,"domin":6098,"songs":6099,"weapons":6100,"condemned":6101,"theatre":6102,"indifferent":6103,"dot":6104,"pile":6105,"receiving":6106,"congress":6107,"using":6108,"handle":6109,"india":6110,"expense":6111,"arrow":6112,"funny":6113,"sailors":6114,"calmly":6115,"favorite":6116,"##guer":6117,"display":6118,"ireland":6119,"twilight":6120,"##cest":6121,"##nat":6122,"concent":6123,"encl":6124,"spain":6125,"lofty":6126,"##elly":6127,"daylight":6128,"doorway":6129,"dreamed":6130,"gladly":6131,"cryst":6132,"breathing":6133,"hunter":6134,"blessing":6135,"exceedingly":6136,"tang":6137,"today":6138,"stroke":6139,"plot":6140,"attracted":6141,"##ensible":6142,"refuge":6143,"examination":6144,"##ological":6145,"tales":6146,"relieved":6147,"tremendous":6148,"napoleon":6149,"cyr":6150,"mex":6151,"emotions":6152,"repair":6153,"inspect":6154,"keeps":6155,"parad":6156,"scarlet":6157,"garments":6158,"industry":6159,"gifts":6160,"wilt":6161,"##ai":6162,"weep":6163,"##ooked":6164,"thanked":6165,"marguer":6166,"contract":6167,"resting":6168,"cleared":6169,"footst":6170,"##whel":6171,"gallant":6172,"amazement":6173,"arrangement":6174,"folded":6175,"adopted":6176,"exchange":6177,"administr":6178,"marguerite":6179,"roused":6180,"vul":6181,"##oying":6182,"##place":6183,"shir":6184,"stated":6185,"sul":6186,"brut":6187,"##cca":6188,"longed":6189,"natasha":6190,"genuine":6191,"reluct":6192,"artist":6193,"penny":6194,"wilder":6195,"county":6196,"increasing":6197,"virtues":6198,"diamonds":6199,"feathers":6200,"catholic":6201,"indignation":6202,"surrender":6203,"ded":6204,"##irmed":6205,"##ada":6206,"quoth":6207,"resour":6208,"commenced":6209,"serge":6210,"laying":6211,"irr":6212,"expecting":6213,"burnt":6214,"remarks":6215,"murmur":6216,"alarmed":6217,"cardinal":6218,"rifle":6219,"ba":6220,"ecc":6221,"tie":6222,"whip":6223,"solic":6224,"disord":6225,"##inkle":6226,"contact":6227,"demonstr":6228,"error":6229,"henri":6230,"cub":6231,"doth":6232,"manuf":6233,"tranqu":6234,"overwhel":6235,"lords":6236,"##oonful":6237,"satisfy":6238,"neighbors":6239,"masses":6240,"struggling":6241,"communication":6242,"emphas":6243,"physician":6244,"shakespeare":6245,"velve":6246,"##oot":6247,"##ucted":6248,"##uously":6249,"##itz":6250,"haz":6251,"lovers":6252,"longing":6253,"fog":6254,"exposed":6255,"territ":6256,"civilization":6257,"crimson":6258,"mourn":6259,"shepherd":6260,"tore":6261,"deer":6262,"exert":6263,"unlike":6264,"roast":6265,"secured":6266,"summ":6267,"matth":6268,"romans":6269,"intervals":6270,"danglars":6271,"bone":6272,"##mo":6273,"reject":6274,"##ante":6275,"clothing":6276,"perfection":6277,"remem":6278,"joke":6279,"retorted":6280,"distrib":6281,"merit":6282,"patch":6283,"ruined":6284,"centuries":6285,"##ovitch":6286,"examine":6287,"lodge":6288,"bible":6289,"ske":6290,"thief":6291,"##oration":6292,"##amation":6293,"##usions":6294,"##pel":6295,"perf":6296,"income":6297,"sunk":6298,"driver":6299,"jackson":6300,"meadow":6301,"fain":6302,"nancy":6303,"##lo":6304,"##ige":6305,"##just":6306,"frost":6307,"flushed":6308,"scre":6309,"asser":6310,"snake":6311,"security":6312,"anxiously":6313,"enjoyment":6314,"porch":6315,"jaco":6316,"pronounced":6317,"cape":6318,"wret":6319,"##uting":6320,"conception":6321,"center":6322,"frightful":6323,"bald":6324,"dried":6325,"daring":6326,"##rors":6327,"##iated":6328,"##rov":6329,"moist":6330,"purse":6331,"barg":6332,"recent":6333,"glasses":6334,"recognize":6335,"population":6336,"porter":6337,"comrades":6338,"promptly":6339,"glimpse":6340,"bust":6341,"cree":6342,"loo":6343,"mould":6344,"mul":6345,"##inous":6346,"heath":6347,"shaw":6348,"sauce":6349,"exquis":6350,"unse":6351,"outward":6352,"remove":6353,"##izes":6354,"attach":6355,"##ensity":6356,"##ensions":6357,"##oubted":6358,"invisible":6359,"avail":6360,"streams":6361,"consequences":6362,"homes":6363,"positive":6364,"convention":6365,"##plicity":6366,"tobacc":6367,"goss":6368,"goose":6369,"tig":6370,"##inger":6371,"stu":6372,"##vering":6373,"##ulating":6374,"##eman":6375,"ability":6376,"tramp":6377,"indicated":6378,"accur":6379,"restored":6380,"opposed":6381,"paint":6382,"palm":6383,"existed":6384,"funeral":6385,"reminded":6386,"refresh":6387,"dorothy":6388,"jam":6389,"rival":6390,"##ram":6391,"sept":6392,"##aph":6393,"peep":6394,"charity":6395,"minor":6396,"murdered":6397,"transl":6398,"defend":6399,"issue":6400,"issued":6401,"betrayed":6402,"obvious":6403,"sofa":6404,"july":6405,"##low":6406,"##orable":6407,"tops":6408,"##sell":6409,"atl":6410,"sew":6411,"##igs":6412,"spin":6413,"##inking":6414,"perman":6415,"pluck":6416,"lawn":6417,"keeper":6418,"arts":6419,"finest":6420,"realize":6421,"sensitive":6422,"undoubted":6423,"lucky":6424,"hideous":6425,"martin":6426,"newspapers":6427,"bess":6428,"garr":6429,"##of":6430,"##iate":6431,"soph":6432,"##usive":6433,"##outs":6434,"comment":6435,"quit":6436,"glow":6437,"emma":6438,"behav":6439,"awakened":6440,"advised":6441,"brand":6442,"detail":6443,"solitude":6444,"bells":6445,"torment":6446,"weapon":6447,"bars":6448,"fame":6449,"rushing":6450,"sancho":6451,"##eus":6452,"##itudes":6453,"##olent":6454,"root":6455,"roots":6456,"##ints":6457,"succession":6458,"trusted":6459,"travelling":6460,"mixture":6461,"methods":6462,"comrade":6463,"preparations":6464,"detective":6465,"jos":6466,"##ider":6467,"contro":6468,"minded":6469,"temp":6470,"corners":6471,"eldest":6472,"favourite":6473,"manufact":6474,"exquisite":6475,"eth":6476,"push":6477,"shaped":6478,"roar":6479,"##pled":6480,"retain":6481,"charged":6482,"edith":6483,"conducted":6484,"deadly":6485,"patri":6486,"defence":6487,"apolog":6488,"despite":6489,"loudly":6490,"advantages":6491,"holes":6492,"conquer":6493,"##oiselle":6494,"##lets":6495,"sooth":6496,"goat":6497,"trained":6498,"lav":6499,"steal":6500,"landing":6501,"completed":6502,"inclination":6503,"suitable":6504,"essence":6505,"rejoined":6506,"copy":6507,"jealousy":6508,"lament":6509,"##aign":6510,"##lon":6511,"##iency":6512,"##jean":6513,"##inery":6514,"##esy":6515,"##lyle":6516,"congrat":6517,"##tha":6518,"carlyle":6519,"##abled":6520,"monk":6521,"brandon":6522,"planet":6523,"boxes":6524,"fishing":6525,"disgust":6526,"wilson":6527,"amusement":6528,"privilege":6529,"naught":6530,"##lance":6531,"##tte":6532,"freder":6533,"deceived":6534,"allah":6535,"thereby":6536,"bred":6537,"loaded":6538,"throng":6539,"apples":6540,"eloqu":6541,"confined":6542,"sunlight":6543,"lessons":6544,"tomorrow":6545,"determination":6546,"politics":6547,"betray":6548,"uncomfort":6549,"cotton":6550,"cards":6551,"kit":6552,"wip":6553,"##ari":6554,"quix":6555,"wherefore":6556,"indic":6557,"passes":6558,"youngest":6559,"natured":6560,"signed":6561,"musical":6562,"published":6563,"##cribed":6564,"including":6565,"sarah":6566,"obedience":6567,"divers":6568,"tum":6569,"##idents":6570,"appe":6571,"bloss":6572,"letting":6573,"thoughtfully":6574,"resent":6575,"devotion":6576,"arrested":6577,"provin":6578,"hesitation":6579,"dwelling":6580,"preserve":6581,"resistance":6582,"indifference":6583,"lantern":6584,"au":6585,"dre":6586,"gig":6587,"patter":6588,"wick":6589,"##eous":6590,"stim":6591,"changing":6592,"##ria":6593,"copper":6594,"pope":6595,"whereupon":6596,"fortnight":6597,"stephen":6598,"annie":6599,"valjean":6600,"miller":6601,"paying":6602,"department":6603,"accomplish":6604,"angels":6605,"autom":6606,"pillow":6607,"shells":6608,"chimney":6609,"holland":6610,"dumb":6611,"kid":6612,"mate":6613,"arise":6614,"load":6615,"admired":6616,"resolute":6617,"limited":6618,"forests":6619,"vanity":6620,"punish":6621,"rubbed":6622,"depends":6623,"debt":6624,"jacob":6625,"cure":6626,"dad":6627,"sie":6628,"umb":6629,"##oked":6630,"inward":6631,"bees":6632,"##leton":6633,"##utor":6634,"ancest":6635,"##aping":6636,"belt":6637,"treach":6638,"##bridge":6639,"accounts":6640,"englishman":6641,"jews":6642,"ivan":6643,"responded":6644,"matthew":6645,"jones":6646,"##enn":6647,"##any":6648,"##omin":6649,"stolen":6650,"##alled":6651,"deeds":6652,"alm":6653,"##emoiselle":6654,"##laced":6655,"images":6656,"appropri":6657,"##rog":6658,"fathers":6659,"mademoiselle":6660,"easier":6661,"flee":6662,"hoping":6663,"citizen":6664,"celebrated":6665,"disagreeable":6666,"tobacco":6667,"les":6668,"om":6669,"pages":6670,"bending":6671,"##ills":6672,"chances":6673,"##rious":6674,"grove":6675,"disple":6676,"flames":6677,"pond":6678,"blows":6679,"lasted":6680,"subd":6681,"limit":6682,"legal":6683,"sticks":6684,"idiot":6685,"excellency":6686,"groups":6687,"preferred":6688,"literary":6689,"beef":6690,"gn":6691,"til":6692,"shag":6693,"##ston":6694,"grows":6695,"mars":6696,"parting":6697,"scare":6698,"drowned":6699,"relative":6700,"ladder":6701,"romantic":6702,"authorities":6703,"warmth":6704,"mutual":6705,"individuals":6706,"prevented":6707,"adventures":6708,"hospit":6709,"involunt":6710,"michael":6711,"##vest":6712,"##inence":6713,"##ana":6714,"##olence":6715,"##law":6716,"facing":6717,"ade":6718,"plains":6719,"interior":6720,"sunset":6721,"prayed":6722,"ashore":6723,"corrid":6724,"packed":6725,"ratt":6726,"teleph":6727,"nerves":6728,"tossed":6729,"average":6730,"ridiculous":6731,"inferior":6732,"ascertain":6733,"pip":6734,"bears":6735,"##ulations":6736,"orange":6737,"universe":6738,"wax":6739,"conflict":6740,"parish":6741,"collected":6742,"studied":6743,"risen":6744,"landsc":6745,"rigid":6746,"pistol":6747,"bost":6748,"lil":6749,"nic":6750,"net":6751,"##eur":6752,"##ients":6753,"##omon":6754,"unjust":6755,"bron":6756,"miser":6757,"boiled":6758,"loyal":6759,"adorn":6760,"wherein":6761,"slid":6762,"counted":6763,"elsewhere":6764,"angrily":6765,"practically":6766,"graceful":6767,"innocence":6768,"yielded":6769,"teleg":6770,"rescue":6771,"hood":6772,"sire":6773,"##oen":6774,"ink":6775,"rein":6776,"whoever":6777,"cannon":6778,"clar":6779,"boot":6780,"offering":6781,"scale":6782,"artific":6783,"illness":6784,"province":6785,"transfer":6786,"operations":6787,"##piration":6788,"total":6789,"glaci":6790,"faster":6791,"gang":6792,"hull":6793,"##rid":6794,"##aves":6795,"##gent":6796,"beck":6797,"shru":6798,"reception":6799,"seize":6800,"impressed":6801,"mail":6802,"curiously":6803,"##okes":6804,"furious":6805,"seconds":6806,"characteristic":6807,"campaign":6808,"instruments":6809,"criminal":6810,"assembled":6811,"encounter":6812,"searching":6813,"staircase":6814,"map":6815,"rand":6816,"##nie":6817,"##itively":6818,"deaf":6819,"likes":6820,"leon":6821,"brisk":6822,"aren":6823,"amused":6824,"bond":6825,"regions":6826,"standard":6827,"extrem":6828,"holds":6829,"satisfactory":6830,"jimmy":6831,"avoided":6832,"procession":6833,"raggedy":6834,"dusk":6835,"administration":6836,"quixote":6837,"oy":6838,"##rom":6839,"##icted":6840,"##ctive":6841,"brass":6842,"clasped":6843,"coffin":6844,"overl":6845,"resign":6846,"sixth":6847,"richmond":6848,"floated":6849,"corpor":6850,"exists":6851,"commonly":6852,"fanny":6853,"denied":6854,"machinery":6855,"railway":6856,"rosy":6857,"impatient":6858,"imprison":6859,"boston":6860,"##eg":6861,"##eon":6862,"##orter":6863,"##entine":6864,"neph":6865,"abb":6866,"##aging":6867,"crou":6868,"generation":6869,"namely":6870,"##cules":6871,"##gram":6872,"immort":6873,"occupation":6874,"previously":6875,"archite":6876,"faintly":6877,"instructions":6878,"acknowledged":6879,"vulgar":6880,"velvet":6881,"etern":6882,"kar":6883,"tid":6884,"##sequ":6885,"##arts":6886,"spur":6887,"##eling":6888,"##agues":6889,"swar":6890,"jolly":6891,"assume":6892,"speaker":6893,"illum":6894,"sweep":6895,"embro":6896,"candid":6897,"combat":6898,"##after":6899,"captured":6900,"pretend":6901,"neighborhood":6902,"cush":6903,"dangers":6904,"##oman":6905,"stores":6906,"revel":6907,"##aments":6908,"conceived":6909,"##udder":6910,"supposing":6911,"followers":6912,"continent":6913,"doubtful":6914,"johnny":6915,"convict":6916,"balls":6917,"horrid":6918,"fortunes":6919,"spani":6920,"unfortunately":6921,"pirates":6922,"april":6923,"prudence":6924,"telegraph":6925,"pave":6926,"ted":6927,"frown":6928,"prow":6929,"doc":6930,"##racy":6931,"##ago":6932,"blown":6933,"prem":6934,"spear":6935,"helm":6936,"proposition":6937,"sentiments":6938,"motor":6939,"solomon":6940,"dwelt":6941,"wheat":6942,"balance":6943,"surrounding":6944,"gilbert":6945,"september":6946,"nephew":6947,"rings":6948,"##mans":6949,"shores":6950,"shudder":6951,"aroused":6952,"warned":6953,"phoen":6954,"propose":6955,"helping":6956,"summit":6957,"profit":6958,"americans":6959,"furnish":6960,"railroad":6961,"erect":6962,"solemnly":6963,"phrase":6964,"summoned":6965,"channel":6966,"doctrine":6967,"dine":6968,"vest":6969,"##olet":6970,"rela":6971,"seats":6972,"brood":6973,"##berry":6974,"repose":6975,"reported":6976,"woe":6977,"inquire":6978,"training":6979,"pressing":6980,"tribe":6981,"rarely":6982,"rebell":6983,"fatigue":6984,"frederick":6985,"dug":6986,"##anim":6987,"anton":6988,"lik":6989,"tram":6990,"thresh":6991,"runs":6992,"questioned":6993,"breathe":6994,"seventh":6995,"verse":6996,"compliment":6997,"deserve":6998,"healthy":6999,"delicious":7000,"assistant":7001,"dishes":7002,"latin":7003,"assembly":7004,"specim":7005,"intentions":7006,"undoubtedly":7007,"dashed":7008,"##iour":7009,"##idable":7010,"##celot":7011,"upward":7012,"nove":7013,"felic":7014,"##ops":7015,"##fts":7016,"impart":7017,"slope":7018,"##ubb":7019,"monstr":7020,"monkey":7021,"##anks":7022,"pleasures":7023,"sensations":7024,"breathed":7025,"medical":7026,"killing":7027,"performance":7028,"recommend":7029,"launcelot":7030,"footsteps":7031,"bargain":7032,"shalt":7033,"sails":7034,"dost":7035,"upright":7036,"downstairs":7037,"blast":7038,"glen":7039,"glowing":7040,"instances":7041,"regards":7042,"confession":7043,"advancing":7044,"lifting":7045,"swords":7046,"fortunately":7047,"addressing":7048,"spectacle":7049,"recalled":7050,"travellers":7051,"convenient":7052,"eagle":7053,"creek":7054,"shaggy":7055,"bou":7056,"##aved":7057,"##anor":7058,"butt":7059,"##ander":7060,"boiling":7061,"hasn":7062,"struct":7063,"##athan":7064,"bloody":7065,"secretly":7066,"violently":7067,"demands":7068,"imperfect":7069,"affectionate":7070,"##natural":7071,"fi":7072,"jury":7073,"naut":7074,"##ray":7075,"##uity":7076,"##iving":7077,"##forth":7078,"##itute":7079,"wasted":7080,"##urer":7081,"analy":7082,"appla":7083,"backward":7084,"residence":7085,"##izz":7086,"submit":7087,"vex":7088,"terribly":7089,"humour":7090,"penn":7091,"dropping":7092,"schools":7093,"turkey":7094,"travelled":7095,"injured":7096,"accompany":7097,"vigor":7098,"displayed":7099,"prosperity":7100,"discipl":7101,"territory":7102,"tumult":7103,"threshold":7104,"hush":7105,"link":7106,"rasc":7107,"##rane":7108,"##lock":7109,"##hand":7110,"##cle":7111,"##keys":7112,"cha":7113,"liver":7114,"altered":7115,"scru":7116,"thoughtful":7117,"assurance":7118,"eighth":7119,"raw":7120,"coron":7121,"creation":7122,"maintained":7123,"stirring":7124,"##force":7125,"acknowledge":7126,"purchase":7127,"offended":7128,"africa":7129,"portrait":7130,"kin":7131,"vine":7132,"woo":7133,"toil":7134,"section":7135,"##ements":7136,"ponder":7137,"missing":7138,"owned":7139,"##enses":7140,"supplied":7141,"simplicity":7142,"incap":7143,"catching":7144,"observing":7145,"apost":7146,"potat":7147,"persuade":7148,"envy":7149,"swallowed":7150,"strictly":7151,"levin":7152,"normal":7153,"wilderness":7154,"landscape":7155,"gos":7156,"##ek":7157,"##fic":7158,"##ita":7159,"theirs":7160,"brick":7161,"brains":7162,"trous":7163,"fawn":7164,"spots":7165,"poets":7166,"moan":7167,"serpent":7168,"traged":7169,"##ceptible":7170,"believing":7171,"requires":7172,"injury":7173,"steamer":7174,"kenned":7175,"complexion":7176,"dense":7177,"mast":7178,"mity":7179,"##onic":7180,"##iser":7181,"hercules":7182,"dew":7183,"canv":7184,"overhead":7185,"offence":7186,"partner":7187,"lace":7188,"survey":7189,"harder":7190,"humor":7191,"expectation":7192,"ruins":7193,"announce":7194,"ridge":7195,"transform":7196,"shoe":7197,"creep":7198,"forgetting":7199,"sympt":7200,"politeness":7201,"jewel":7202,"struggled":7203,"cheerfully":7204,"speedily":7205,"hurrying":7206,"searched":7207,"kennedy":7208,"cose":7209,"rect":7210,"friday":7211,"franz":7212,"lif":7213,"agitation":7214,"natives":7215,"hopeless":7216,"springs":7217,"anguish":7218,"heavenly":7219,"admiral":7220,"dishon":7221,"endeavour":7222,"positively":7223,"impatience":7224,"frozen":7225,"establishment":7226,"curtains":7227,"compassion":7228,"challen":7229,"gossip":7230,"uncomfortable":7231,"bret":7232,"cu":7233,"pad":7234,"##enched":7235,"ing":7236,"haired":7237,"stall":7238,"recei":7239,"saving":7240,"prime":7241,"enqu":7242,"##apes":7243,"spar":7244,"locks":7245,"prod":7246,"flies":7247,"monday":7248,"consented":7249,"founded":7250,"restless":7251,"decent":7252,"oppress":7253,"churches":7254,"journal":7255,"function":7256,"neglected":7257,"venus":7258,"ranks":7259,"magician":7260,"comprehend":7261,"anchor":7262,"wreck":7263,"dazz":7264,"mitya":7265,"bapt":7266,"cents":7267,"eust":7268,"jason":7269,"##och":7270,"##fold":7271,"##arn":7272,"shif":7273,"##adel":7274,"butler":7275,"##rig":7276,"willingly":7277,"coarse":7278,"disd":7279,"guilt":7280,"subl":7281,"recently":7282,"##ocracy":7283,"dreaming":7284,"leads":7285,"embrace":7286,"testim":7287,"obviously":7288,"swimming":7289,"precaut":7290,"bother":7291,"rice":7292,"##atically":7293,"tools":7294,"bea":7295,"stove":7296,"conceive":7297,"alight":7298,"##umps":7299,"robe":7300,"forming":7301,"sket":7302,"bags":7303,"cellar":7304,"cens":7305,"##orse":7306,"##aration":7307,"rebe":7308,"sem":7309,"##alla":7310,"lip":7311,"amiable":7312,"grain":7313,"flowing":7314,"planted":7315,"nighting":7316,"slay":7317,"confessed":7318,"speaks":7319,"irre":7320,"painting":7321,"riches":7322,"leaders":7323,"covering":7324,"division":7325,"limits":7326,"punished":7327,"tribes":7328,"impatiently":7329,"interpret":7330,"##regular":7331,"independence":7332,"greeted":7333,"engineer":7334,"avenue":7335,"hedge":7336,"gorge":7337,"wretch":7338,"cosette":7339,"kick":7340,"##oard":7341,"##bar":7342,"bend":7343,"##chio":7344,"chill":7345,"ambit":7346,"scott":7347,"consisted":7348,"waving":7349,"elbow":7350,"highness":7351,"confirmed":7352,"adding":7353,"irregular":7354,"staying":7355,"motives":7356,"protested":7357,"superst":7358,"bills":7359,"liberal":7360,"flora":7361,"derived":7362,"withdrew":7363,"altar":7364,"persec":7365,"hare":7366,"jail":7367,"seal":7368,"prost":7369,"blowing":7370,"graham":7371,"keys":7372,"##lands":7373,"certainty":7374,"humil":7375,"checked":7376,"walks":7377,"judged":7378,"##ovna":7379,"##grim":7380,"memories":7381,"temperature":7382,"magistrate":7383,"peasants":7384,"lur":7385,"rows":7386,"rational":7387,"tu":7388,"##ober":7389,"##elf":7390,"##rical":7391,"##esis":7392,"shrew":7393,"sailing":7394,"prol":7395,"chau":7396,"##rian":7397,"knot":7398,"twas":7399,"twisted":7400,"yourselves":7401,"justified":7402,"conspic":7403,"needle":7404,"slau":7405,"connect":7406,"employment":7407,"bidding":7408,"association":7409,"cautiously":7410,"cash":7411,"feder":7412,"mun":7413,"viz":7414,"wy":7415,"##mie":7416,"##course":7417,"##greg":7418,"sheer":7419,"nowhere":7420,"carr":7421,"foundation":7422,"steward":7423,"lordship":7424,"arrest":7425,"morgan":7426,"romance":7427,"tenderly":7428,"impressions":7429,"##burgh":7430,"boldly":7431,"proposal":7432,"elegant":7433,"rebecca":7434,"vote":7435,"wounds":7436,"##pers":7437,"##nic":7438,"##ilus":7439,"exagger":7440,"ali":7441,"brist":7442,"muse":7443,"##angle":7444,"induced":7445,"assum":7446,"woke":7447,"cavern":7448,"providence":7449,"rocky":7450,"planned":7451,"passionate":7452,"##etta":7453,"cruelty":7454,"unwilling":7455,"vigorous":7456,"torture":7457,"pilgrim":7458,"achieve":7459,"mansion":7460,"inspired":7461,"bundle":7462,"embroid":7463,"prodig":7464,"fare":7465,"gasped":7466,"ost":7467,"vap":7468,"##ta":7469,"##asy":7470,"seed":7471,"prair":7472,"sullen":7473,"##ula":7474,"aboard":7475,"carved":7476,"marius":7477,"glancing":7478,"consists":7479,"retire":7480,"armies":7481,"##pson":7482,"##ibilities":7483,"merr":7484,"judges":7485,"attempts":7486,"balloon":7487,"proceeding":7488,"couch":7489,"moderate":7490,"gleam":7491,"halted":7492,"mourning":7493,"caution":7494,"encountered":7495,"reserve":7496,"improvement":7497,"obscure":7498,"glittering":7499,"enterprise":7500,"photograph":7501,"application":7502,"cough":7503,"sorr":7504,"##hin":7505,"##yl":7506,"##wart":7507,"##verted":7508,"agric":7509,"mob":7510,"beggar":7511,"symb":7512,"madness":7513,"clearing":7514,"collection":7515,"bowl":7516,"hypnot":7517,"commerce":7518,"perpetual":7519,"perplex":7520,"embraced":7521,"umbre":7522,"november":7523,"na":7524,"rhy":7525,"sins":7526,"##burn":7527,"stagg":7528,"##che":7529,"feature":7530,"clam":7531,"poem":7532,"pled":7533,"crushed":7534,"mustn":7535,"descent":7536,"seeming":7537,"accused":7538,"drum":7539,"admire":7540,"lads":7541,"decidedly":7542,"hugh":7543,"picking":7544,"combined":7545,"welcom":7546,"filling":7547,"observations":7548,"severely":7549,"recollection":7550,"cliffs":7551,"sinking":7552,"sheriff":7553,"prosec":7554,"inspector":7555,"remembr":7556,"lid":7557,"pav":7558,"vice":7559,"wages":7560,"##sis":7561,"##ded":7562,"##encies":7563,"##anny":7564,"ree":7565,"##ieu":7566,"bonds":7567,"stricken":7568,"backs":7569,"intercourse":7570,"supplies":7571,"smallest":7572,"entit":7573,"reasoning":7574,"estr":7575,"caes":7576,"penc":7577,"ceiling":7578,"neglect":7579,"hurriedly":7580,"energ":7581,"arrangements":7582,"dissol":7583,"fiercely":7584,"ceremon":7585,"referred":7586,"landlord":7587,"bows":7588,"thumb":7589,"attained":7590,"enable":7591,"clad":7592,"offices":7593,"swam":7594,"mostly":7595,"endless":7596,"breth":7597,"incom":7598,"sna":7599,"maggie":7600,"corpse":7601,"respects":7602,"sufferings":7603,"temptation":7604,"tightly":7605,"preparation":7606,"verses":7607,"bewildered":7608,"sergeant":7609,"disorder":7610,"nautilus":7611,"dict":7612,"ec":7613,"nom":7614,"pul":7615,"##gers":7616,"##ban":7617,"##nde":7618,"##asion":7619,"##alf":7620,"reass":7621,"allan":7622,"dod":7623,"discer":7624,"mule":7625,"smiles":7626,"godd":7627,"##ucky":7628,"indef":7629,"curse":7630,"pleasing":7631,"remembering":7632,"crazy":7633,"destiny":7634,"terrified":7635,"peaceful":7636,"dismay":7637,"educated":7638,"davy":7639,"meadows":7640,"stretch":7641,"policy":7642,"propriet":7643,"inconven":7644,"brethren":7645,"foul":7646,"lent":7647,"##awn":7648,"##fish":7649,"##ya":7650,"shan":7651,"shaken":7652,"fors":7653,"conj":7654,"lend":7655,"colors":7656,"bestowed":7657,"awe":7658,"violet":7659,"harmony":7660,"britain":7661,"lions":7662,"##cow":7663,"##chet":7664,"chatter":7665,"brows":7666,"brute":7667,"##cian":7668,"flu":7669,"##ilet":7670,"##roll":7671,"scold":7672,"foe":7673,"fogg":7674,"interval":7675,"##ashes":7676,"soup":7677,"advise":7678,"syn":7679,"raoul":7680,"##licted":7681,"secrets":7682,"julius":7683,"basin":7684,"russia":7685,"restrain":7686,"tradition":7687,"luxury":7688,"tendency":7689,"prophet":7690,"irresist":7691,"bite":7692,"math":7693,"ram":7694,"##uz":7695,"thie":7696,"##inating":7697,"fruits":7698,"##allel":7699,"##raham":7700,"cares":7701,"prel":7702,"drake":7703,"arrows":7704,"commands":7705,"neighbours":7706,"melted":7707,"prevail":7708,"extrav":7709,"parlour":7710,"claims":7711,"measured":7712,"moscow":7713,"disguise":7714,"marvell":7715,"laura":7716,"paradise":7717,"trousers":7718,"##uated":7719,"##ulars":7720,"abraham":7721,"closing":7722,"clover":7723,"dislike":7724,"peer":7725,"slipp":7726,"mothers":7727,"formal":7728,"monot":7729,"hearth":7730,"awaken":7731,"doubts":7732,"squir":7733,"equality":7734,"entertained":7735,"dresses":7736,"medium":7737,"jacket":7738,"wealthy":7739,"introduce":7740,"procure":7741,"duration":7742,"awaiting":7743,"december":7744,"axe":7745,"extravag":7746,"pud":7747,"tenth":7748,"##oh":7749,"##aur":7750,"##dles":7751,"##za":7752,"##itious":7753,"##cel":7754,"##esses":7755,"abode":7756,"facul":7757,"##assed":7758,"remedy":7759,"##ounted":7760,"tread":7761,"harmon":7762,"polished":7763,"patron":7764,"eagerness":7765,"deserved":7766,"representative":7767,"inquiries":7768,"comparison":7769,"faculty":7770,"eh":7771,"ell":7772,"lun":7773,"wits":7774,"wont":7775,"##don":7776,"##inge":7777,"haul":7778,"haught":7779,"upset":7780,"enabled":7781,"clung":7782,"##udge":7783,"impuls":7784,"answering":7785,"beautifully":7786,"editor":7787,"existing":7788,"superint":7789,"guarded":7790,"admirable":7791,"##amental":7792,"materials":7793,"unconsciously":7794,"treasures":7795,"diver":7796,"##ington":7797,"shine":7798,"stub":7799,"amelia":7800,"blush":7801,"mayor":7802,"plague":7803,"slumber":7804,"subtle":7805,"largest":7806,"plays":7807,"robbed":7808,"enjoying":7809,"louder":7810,"reports":7811,"experiences":7812,"navig":7813,"nightingale":7814,"bits":7815,"cows":7816,"fern":7817,"kent":7818,"lic":7819,"mol":7820,"pag":7821,"##mouth":7822,"##nut":7823,"whim":7824,"sack":7825,"knelt":7826,"##ourt":7827,"##assad":7828,"scand":7829,"placing":7830,"##mended":7831,"composition":7832,"serving":7833,"##neys":7834,"text":7835,"doubted":7836,"largely":7837,"eleph":7838,"transport":7839,"sandy":7840,"savages":7841,"gloves":7842,"commercial":7843,"route":7844,"spargo":7845,"dy":7846,"gab":7847,"ket":7848,"lemon":7849,"pushing":7850,"##oons":7851,"##tur":7852,"##hire":7853,"##hov":7854,"##ingham":7855,"##ican":7856,"select":7857,"conject":7858,"##usal":7859,"amusing":7860,"discl":7861,"contest":7862,"wrought":7863,"ministers":7864,"bigger":7865,"prett":7866,"occasional":7867,"errand":7868,"recognised":7869,"sickness":7870,"situated":7871,"climbing":7872,"pearls":7873,"muscular":7874,"released":7875,"traveller":7876,"renewed":7877,"telephone":7878,"fiery":7879,"psmith":7880,"vib":7881,"##hib":7882,"##vous":7883,"##rial":7884,"amend":7885,"perish":7886,"childish":7887,"promises":7888,"inval":7889,"provide":7890,"hasty":7891,"dispute":7892,"peters":7893,"turtle":7894,"hostile":7895,"purely":7896,"awaited":7897,"preceding":7898,"release":7899,"alexander":7900,"reserved":7901,"tremble":7902,"phenomena":7903,"encouraged":7904,"bough":7905,"dame":7906,"games":7907,"nigh":7908,"og":7909,"##ania":7910,"##adem":7911,"sund":7912,"chat":7913,"lee":7914,"##lac":7915,"hearty":7916,"formidable":7917,"restore":7918,"behalf":7919,"visits":7920,"valentine":7921,"occupy":7922,"ringing":7923,"ambassad":7924,"contains":7925,"adopt":7926,"gravity":7927,"corridor":7928,"pavement":7929,"likeness":7930,"ellen":7931,"##aid":7932,"##line":7933,"##ias":7934,"stained":7935,"orph":7936,"##antial":7937,"scent":7938,"remorse":7939,"swinging":7940,"workmen":7941,"colon":7942,"skil":7943,"##inese":7944,"included":7945,"stooped":7946,"deemed":7947,"october":7948,"inevitable":7949,"resources":7950,"caesar":7951,"bunch":7952,"nails":7953,"oven":7954,"rus":7955,"rash":7956,"vale":7957,"wer":7958,"##loc":7959,"##xter":7960,"##zil":7961,"chamb":7962,"attorn":7963,"answers":7964,"veins":7965,"drown":7966,"paces":7967,"eleanor":7968,"student":7969,"dolls":7970,"narrative":7971,"learnt":7972,"prevailed":7973,"rubbing":7974,"faults":7975,"invention":7976,"cordial":7977,"tempted":7978,"horns":7979,"professional":7980,"printed":7981,"economic":7982,"globe":7983,"cavalry":7984,"dismissed":7985,"japanese":7986,"##rest":7987,"##foot":7988,"##atus":7989,"##imer":7990,"stool":7991,"##arded":7992,"clust":7993,"grasped":7994,"cove":7995,"flowed":7996,"martha":7997,"poly":7998,"crumb":7999,"indisp":8000,"housekeeper":8001,"wars":8002,"winding":8003,"dearly":8004,"slew":8005,"election":8006,"discourse":8007,"surprising":8008,"recognition":8009,"cooking":8010,"unworth":8011,"responsibility":8012,"deprived":8013,"tiger":8014,"gigantic":8015,"disdain":8016,"superintend":8017,"dix":8018,"fitting":8019,"mask":8020,"##ody":8021,"##rating":8022,"##ji":8023,"shelf":8024,"chem":8025,"chop":8026,"bru":8027,"greatness":8028,"firing":8029,"betty":8030,"##oths":8031,"##arks":8032,"tracks":8033,"colours":8034,"harness":8035,"fairies":8036,"benev":8037,"villain":8038,"thankful":8039,"apartments":8040,"arguments":8041,"heroes":8042,"reverence":8043,"undertake":8044,"durham":8045,"fragments":8046,"forbidden":8047,"echoed":8048,"interfere":8049,"monstrous":8050,"breton":8051,"conspicuous":8052,"federal":8053,"remembrance":8054,"snapped":8055,"cakes":8056,"gulf":8057,"oars":8058,"sant":8059,"##row":8060,"##liest":8061,"##iary":8062,"selected":8063,"thereupon":8064,"##anda":8065,"unne":8066,"##iforn":8067,"##acks":8068,"induce":8069,"access":8070,"nora":8071,"appearances":8072,"sunny":8073,"personally":8074,"californ":8075,"lowest":8076,"wildly":8077,"destined":8078,"convuls":8079,"guardian":8080,"##ikov":8081,"lodging":8082,"spoil":8083,"sparkling":8084,"apron":8085,"responsible":8086,"elabor":8087,"prolong":8088,"dum":8089,"nun":8090,"wig":8091,"##ainder":8092,"##lor":8093,"##arian":8094,"##itors":8095,"hem":8096,"heel":8097,"##omb":8098,"##irs":8099,"defect":8100,"degr":8101,"##riages":8102,"##abella":8103,"plough":8104,"blade":8105,"scri":8106,"compare":8107,"passages":8108,"##acqu":8109,"droop":8110,"patiently":8111,"estim":8112,"rider":8113,"product":8114,"sweetness":8115,"reflections":8116,"dreaded":8117,"executed":8118,"briefly":8119,"drunken":8120,"amidst":8121,"uncommon":8122,"deliberately":8123,"stamped":8124,"parson":8125,"jaws":8126,"withdraw":8127,"tragedy":8128,"dub":8129,"suited":8130,"##ilton":8131,"org":8132,"leagues":8133,"trop":8134,"perch":8135,"milton":8136,"explos":8137,"lowered":8138,"pencil":8139,"effective":8140,"brightly":8141,"ville":8142,"holiday":8143,"warrior":8144,"contrived":8145,"screen":8146,"permanent":8147,"entitled":8148,"unnecess":8149,"eug":8150,"loun":8151,"lud":8152,"lots":8153,"rue":8154,"##master":8155,"##isy":8156,"##arin":8157,"halt":8158,"chinese":8159,"nod":8160,"misfortun":8161,"ark":8162,"remainder":8163,"##acing":8164,"##phia":8165,"columb":8166,"raven":8167,"squee":8168,"paths":8169,"##zzie":8170,"tailor":8171,"condemn":8172,"sports":8173,"battles":8174,"patriot":8175,"cel":8176,"##pense":8177,"##atisf":8178,"haunted":8179,"prisc":8180,"chicken":8181,"unacc":8182,"agitated":8183,"timber":8184,"##ineas":8185,"crad":8186,"assass":8187,"openly":8188,"elev":8189,"earthly":8190,"##occhio":8191,"##asping":8192,"tails":8193,"earliest":8194,"frankly":8195,"afforded":8196,"athen":8197,"screamed":8198,"resemblance":8199,"muscles":8200,"pacific":8201,"artificial":8202,"corporal":8203,"eustace":8204,"niece":8205,"waking":8206,"##ping":8207,"##vial":8208,"recess":8209,"twist":8210,"amy":8211,"clara":8212,"bluff":8213,"wonders":8214,"skull":8215,"simpl":8216,"##aneously":8217,"##ifications":8218,"candles":8219,"model":8220,"threatening":8221,"bullet":8222,"conquered":8223,"bonnet":8224,"trifle":8225,"liquid":8226,"weighed":8227,"asserted":8228,"scarecr":8229,"structure":8230,"shrewd":8231,"ecst":8232,"misfortunes":8233,"bart":8234,"fert":8235,"nick":8236,"stif":8237,"##ustice":8238,"lege":8239,"abys":8240,"intently":8241,"aram":8242,"spy":8243,"uses":8244,"cars":8245,"appointment":8246,"plum":8247,"remonstr":8248,"glances":8249,"newly":8250,"sets":8251,"charms":8252,"relate":8253,"barrel":8254,"closet":8255,"democratic":8256,"thyself":8257,"students":8258,"dollar":8259,"injustice":8260,"barely":8261,"pinocchio":8262,"sanct":8263,"pearl":8264,"pouring":8265,"desirable":8266,"institutions":8267,"phenomen":8268,"consolation":8269,"discipline":8270,"priscilla":8271,"cad":8272,"lung":8273,"pang":8274,"vital":8275,"##mod":8276,"##gence":8277,"##joy":8278,"init":8279,"stalk":8280,"chate":8281,"##uscript":8282,"manuscript":8283,"outs":8284,"plates":8285,"underne":8286,"serene":8287,"guided":8288,"##retion":8289,"patsy":8290,"strongest":8291,"temples":8292,"affirm":8293,"angle":8294,"sque":8295,"clothed":8296,"mouths":8297,"gardener":8298,"creeping":8299,"frenchman":8300,"volcan":8301,"delicacy":8302,"agreement":8303,"bodily":8304,"university":8305,"associated":8306,"nuts":8307,"comparatively":8308,"wolves":8309,"estralla":8310,"gau":8311,"moses":8312,"pi":8313,"ford":8314,"##alog":8315,"chor":8316,"groom":8317,"perceiving":8318,"strang":8319,"cris":8320,"justify":8321,"accum":8322,"stillness":8323,"slim":8324,"puts":8325,"righteous":8326,"persisted":8327,"subsequ":8328,"surm":8329,"surp":8330,"evol":8331,"generations":8332,"raft":8333,"calam":8334,"examining":8335,"philadel":8336,"damsel":8337,"customs":8338,"rags":8339,"defeat":8340,"improved":8341,"nobility":8342,"exhibited":8343,"apprehension":8344,"writers":8345,"incapable":8346,"mathem":8347,"thieves":8348,"underneath":8349,"hoof":8350,"jude":8351,"sid":8352,"##rise":8353,"##ua":8354,"##onse":8355,"choo":8356,"##opl":8357,"##elie":8358,"muff":8359,"scared":8360,"hoarse":8361,"owners":8362,"swore":8363,"swamp":8364,"pleaded":8365,"confer":8366,"##inson":8367,"extensive":8368,"probability":8369,"jimmie":8370,"suspicious":8371,"rejoiced":8372,"jerry":8373,"cathed":8374,"pirate":8375,"fisherman":8376,"january":8377,"fowl":8378,"crystal":8379,"emphasis":8380,"eternity":8381,"canvas":8382,"umbrella":8383,"california":8384,"philadelphia":8385,"claimed":8386,"mall":8387,"vary":8388,"##bru":8389,"advers":8390,"##pton":8391,"poems":8392,"##roft":8393,"scul":8394,"specially":8395,"draught":8396,"humb":8397,"snatched":8398,"oppon":8399,"startling":8400,"studying":8401,"antiqu":8402,"marrying":8403,"spreading":8404,"cousins":8405,"roughly":8406,"bravely":8407,"european":8408,"amazed":8409,"senator":8410,"dunbar":8411,"culture":8412,"nobles":8413,"scotch":8414,"orchard":8415,"glacier":8416,"borr":8417,"dash":8418,"hats":8419,"hann":8420,"jasper":8421,"lor":8422,"rises":8423,"##inement":8424,"##oust":8425,"shared":8426,"area":8427,"abol":8428,"##inkling":8429,"background":8430,"charlot":8431,"guy":8432,"returns":8433,"barrier":8434,"fearing":8435,"brandy":8436,"casting":8437,"suspended":8438,"maidens":8439,"separation":8440,"favorable":8441,"imperial":8442,"basis":8443,"luxur":8444,"aye":8445,"nursery":8446,"darted":8447,"wiped":8448,"spaniards":8449,"##ranean":8450,"symptoms":8451,"testimony":8452,"sculpt":8453,"tull":8454,"##istered":8455,"##icable":8456,"chains":8457,"##rael":8458,"wholes":8459,"enlight":8460,"troop":8461,"marie":8462,"smote":8463,"writes":8464,"phant":8465,"visiting":8466,"harbour":8467,"decre":8468,"expressions":8469,"declined":8470,"dispos":8471,"punct":8472,"volunt":8473,"pursue":8474,"hesitate":8475,"customary":8476,"shops":8477,"ruler":8478,"bleed":8479,"shocked":8480,"management":8481,"entertainment":8482,"attractive":8483,"carelessly":8484,"institution":8485,"significance":8486,"clergyman":8487,"phoenix":8488,"attorney":8489,"villefort":8490,"scarecrow":8491,"aught":8492,"cass":8493,"wink":8494,"welf":8495,"soap":8496,"therein":8497,"roaring":8498,"spared":8499,"twent":8500,"prohib":8501,"stro":8502,"peop":8503,"crest":8504,"accent":8505,"lazy":8506,"relatives":8507,"##aneous":8508,"horseback":8509,"##alem":8510,"discont":8511,"commanding":8512,"declaration":8513,"matt":8514,"kissing":8515,"fitz":8516,"records":8517,"adams":8518,"coachman":8519,"policeman":8520,"sublime":8521,"chateau":8522,"welfare":8523,"mice":8524,"mike":8525,"tooth":8526,"##itan":8527,"##lying":8528,"trout":8529,"quaint":8530,"ample":8531,"plunder":8532,"scant":8533,"academ":8534,"behaved":8535,"gregg":8536,"factory":8537,"personality":8538,"circular":8539,"defin":8540,"joyous":8541,"breathless":8542,"fools":8543,"capture":8544,"interpre":8545,"bolt":8546,"##borne":8547,"anthea":8548,"vehic":8549,"constructed":8550,"agricult":8551,"based":8552,"gy":8553,"gamb":8554,"hired":8555,"jung":8556,"##oor":8557,"incess":8558,"##reet":8559,"##urg":8560,"dolly":8561,"intol":8562,"flick":8563,"crash":8564,"termin":8565,"generosity":8566,"entr":8567,"provision":8568,"fancies":8569,"determine":8570,"hunted":8571,"response":8572,"machines":8573,"christianity":8574,"involved":8575,"lamps":8576,"unworthy":8577,"wool":8578,"##tel":8579,"##utive":8580,"##urre":8581,"##urable":8582,"isol":8583,"sealed":8584,"femin":8585,"febru":8586,"##unities":8587,"marching":8588,"crust":8589,"commons":8590,"waver":8591,"##unders":8592,"voc":8593,"vexed":8594,"uncon":8595,"##version":8596,"paste":8597,"particulars":8598,"quarre":8599,"protected":8600,"whisk":8601,"dares":8602,"scrut":8603,"civilized":8604,"interposed":8605,"appreciate":8606,"granite":8607,"pattern":8608,"potatoes":8609,"february":8610,"dirt":8611,"oun":8612,"rack":8613,"ripe":8614,"##hile":8615,"##cid":8616,"##fly":8617,"##gic":8618,"##vid":8619,"##vant":8620,"##orpe":8621,"##llor":8622,"heb":8623,"stare":8624,"sax":8625,"frock":8626,"perception":8627,"carpent":8628,"oldest":8629,"mah":8630,"assisted":8631,"wonderfully":8632,"discom":8633,"discussed":8634,"literally":8635,"triumphant":8636,"settlement":8637,"exhaust":8638,"pigs":8639,"abundance":8640,"assertion":8641,"enchant":8642,"enchanted":8643,"pupils":8644,"incredible":8645,"cyril":8646,"atlantic":8647,"prairie":8648,"bachel":8649,"hoop":8650,"tact":8651,"##eb":8652,"andy":8653,"##lder":8654,"stately":8655,"mend":8656,"dexter":8657,"dol":8658,"##iston":8659,"worm":8660,"sphere":8661,"desolate":8662,"accus":8663,"excurs":8664,"needn":8665,"##apping":8666,"circles":8667,"eyebr":8668,"courtesy":8669,"verd":8670,"conseil":8671,"conclude":8672,"regularly":8673,"dignified":8674,"bobby":8675,"invented":8676,"##borough":8677,"merchants":8678,"annoyed":8679,"quivering":8680,"temporary":8681,"unseen":8682,"subdued":8683,"marvellous":8684,"script":8685,"charlotte":8686,"bour":8687,"dant":8688,"mak":8689,"mute":8690,"py":8691,"yer":8692,"yawn":8693,"##oid":8694,"##iner":8695,"whir":8696,"stake":8697,"agnes":8698,"gross":8699,"strained":8700,"screw":8701,"##ulties":8702,"assault":8703,"skir":8704,"incons":8705,"strikes":8706,"transpar":8707,"production":8708,"combination":8709,"hypoth":8710,"primitive":8711,"waistcoat":8712,"alexandrov":8713,"additional":8714,"faculties":8715,"harris":8716,"siege":8717,"welcomed":8718,"unnecessary":8719,"eric":8720,"lyn":8721,"tune":8722,"##mun":8723,"beau":8724,"ster":8725,"israel":8726,"sag":8727,"sheets":8728,"seam":8729,"sobs":8730,"deceive":8731,"chic":8732,"chape":8733,"##ulously":8734,"unch":8735,"worried":8736,"brim":8737,"roger":8738,"throb":8739,"bliss":8740,"keith":8741,"traces":8742,"behave":8743,"condes":8744,"studies":8745,"sadness":8746,"comforted":8747,"comfortably":8748,"villages":8749,"crowds":8750,"dreadfully":8751,"miracle":8752,"scramb":8753,"eliza":8754,"##ography":8755,"calculated":8756,"cultivated":8757,"musket":8758,"leslie":8759,"bronze":8760,"aramis":8761,"budd":8762,"gird":8763,"nour":8764,"pic":8765,"##omy":8766,"stew":8767,"stump":8768,"suck":8769,"##usalem":8770,"##olk":8771,"quitted":8772,"agents":8773,"##cible":8774,"strings":8775,"flashing":8776,"indicate":8777,"moves":8778,"##boy":8779,"continual":8780,"painter":8781,"brace":8782,"ordin":8783,"expressing":8784,"defined":8785,"robbers":8786,"shouts":8787,"ninth":8788,"hamm":8789,"revolver":8790,"attendant":8791,"dismal":8792,"falsehood":8793,"greeting":8794,"relieve":8795,"identity":8796,"split":8797,"embarrassment":8798,"torrent":8799,"pudding":8800,"phenomenon":8801,"crisis":8802,"cathedral":8803,"hebrew":8804,"jon":8805,"pel":8806,"rans":8807,"sledge":8808,"tus":8809,"##gon":8810,"##wr":8811,"hail":8812,"##oting":8813,"envelop":8814,"rost":8815,"##cock":8816,"assent":8817,"readers":8818,"readiness":8819,"edison":8820,"doctors":8821,"furiously":8822,"coldly":8823,"considerably":8824,"imagin":8825,"varied":8826,"solution":8827,"mirth":8828,"corrupt":8829,"wiser":8830,"jerusalem":8831,"farmers":8832,"multi":8833,"sternly":8834,"cherished":8835,"egyptian":8836,"swallow":8837,"desirous":8838,"governed":8839,"inherit":8840,"mules":8841,"slaughter":8842,"bake":8843,"han":8844,"pump":8845,"tart":8846,"##gra":8847,"##oral":8848,"##itations":8849,"##cend":8850,"sel":8851,"##oso":8852,"goin":8853,"quad":8854,"crimes":8855,"impet":8856,"workers":8857,"team":8858,"elm":8859,"parallel":8860,"exciting":8861,"invari":8862,"elected":8863,"constance":8864,"demon":8865,"approve":8866,"review":8867,"fishes":8868,"hymn":8869,"garment":8870,"intelligible":8871,"proudly":8872,"pierced":8873,"spectacles":8874,"gleaming":8875,"senate":8876,"critical":8877,"parker":8878,"exchanged":8879,"##addin":8880,"scholar":8881,"chambers":8882,"dixon":8883,"invariably":8884,"bisc":8885,"##ais":8886,"##da":8887,"##entially":8888,"forem":8889,"meals":8890,"alert":8891,"aladdin":8892,"intensity":8893,"clinging":8894,"prover":8895,"handful":8896,"justly":8897,"replaced":8898,"pleasantly":8899,"stealing":8900,"##velin":8901,"##versed":8902,"experiments":8903,"##ervation":8904,"apparatus":8905,"bitterness":8906,"flav":8907,"attendants":8908,"introduction":8909,"parlor":8910,"witnessed":8911,"ascend":8912,"border":8913,"challenge":8914,"tulliver":8915,"chicago":8916,"ape":8917,"fist":8918,"##long":8919,"##leg":8920,"##icious":8921,"##icient":8922,"shower":8923,"shudd":8924,"onward":8925,"##chn":8926,"isle":8927,"##unte":8928,"misunder":8929,"quart":8930,"##urned":8931,"##pling":8932,"offers":8933,"presume":8934,"commit":8935,"courte":8936,"happening":8937,"advoc":8938,"##odor":8939,"honourable":8940,"deepest":8941,"hasten":8942,"morality":8943,"accommod":8944,"create":8945,"volunte":8946,"unhe":8947,"shrill":8948,"witnesses":8949,"organization":8950,"whistle":8951,"leaping":8952,"battery":8953,"tempest":8954,"chauvelin":8955,"sorrows":8956,"oz":8957,"##iating":8958,"##ouch":8959,"##ifies":8960,"##ishes":8961,"loaf":8962,"adher":8963,"##cope":8964,"repuls":8965,"phara":8966,"colony":8967,"awhile":8968,"magaz":8969,"innum":8970,"warmly":8971,"whispering":8972,"unkind":8973,"dependent":8974,"talent":8975,"cabinet":8976,"folds":8977,"correspondence":8978,"stretching":8979,"outline":8980,"juice":8981,"exercised":8982,"pipes":8983,"leonora":8984,"felicity":8985,"fug":8986,"lined":8987,"ment":8988,"wist":8989,"##tes":8990,"##vin":8991,"##atical":8992,"haunt":8993,"##urred":8994,"chast":8995,"liking":8996,"nostr":8997,"##asting":8998,"##olph":8999,"##ouncing":9000,"overfl":9001,"maria":9002,"peered":9003,"appoint":9004,"crooked":9005,"pref":9006,"imposed":9007,"endured":9008,"distressed":9009,"acid":9010,"expand":9011,"hurled":9012,"laden":9013,"arriving":9014,"defiance":9015,"drawer":9016,"negot":9017,"ghast":9018,"picturesque":9019,"loos":9020,"tidings":9021,"cups":9022,"lungs":9023,"ry":9024,"##ucc":9025,"##ball":9026,"##enka":9027,"andre":9028,"##arge":9029,"befall":9030,"##ida":9031,"isabella":9032,"myles":9033,"allen":9034,"donkey":9035,"internal":9036,"##iah":9037,"confirm":9038,"##ceptions":9039,"ladyship":9040,"blazing":9041,"skins":9042,"sunrise":9043,"races":9044,"requis":9045,"tearing":9046,"resolve":9047,"thicket":9048,"youthful":9049,"##ference":9050,"hunters":9051,"fashionable":9052,"owl":9053,"damn":9054,"butterfly":9055,"crowned":9056,"martyr":9057,"captive":9058,"endeavoured":9059,"trifling":9060,"bulk":9061,"sleeve":9062,"encouragement":9063,"trumpet":9064,"provinces":9065,"immortal":9066,"goddess":9067,"twentieth":9068,"innumerable":9069,"boss":9070,"sic":9071,"##ees":9072,"##eches":9073,"##estion":9074,"upro":9075,"bry":9076,"roared":9077,"cane":9078,"adjo":9079,"mare":9080,"backwards":9081,"speeches":9082,"rightly":9083,"happier":9084,"cursed":9085,"##ials":9086,"barric":9087,"christians":9088,"producing":9089,"volumes":9090,"tasted":9091,"claws":9092,"affections":9093,"hammer":9094,"hamilton":9095,"julie":9096,"erected":9097,"instinctively":9098,"distrust":9099,"totally":9100,"enthusiastic":9101,"digging":9102,"purchased":9103,"ascended":9104,"dilig":9105,"conveyed":9106,"behaviour":9107,"cyn":9108,"fy":9109,"fost":9110,"lum":9111,"##uv":9112,"##cus":9113,"##gings":9114,"##eries":9115,"##ste":9116,"asks":9117,"herd":9118,"##ado":9119,"##ooge":9120,"##illery":9121,"lob":9122,"overp":9123,"##iph":9124,"commence":9125,"wrist":9126,"confron":9127,"believes":9128,"refined":9129,"generals":9130,"curate":9131,"##velope":9132,"promising":9133,"constr":9134,"strait":9135,"respected":9136,"favourable":9137,"divide":9138,"despise":9139,"banker":9140,"waiter":9141,"robes":9142,"inquis":9143,"##anna":9144,"proceedings":9145,"traveling":9146,"owed":9147,"honorable":9148,"scrooge":9149,"babylon":9150,"bands":9151,"reckoned":9152,"indignant":9153,"recommended":9154,"tricks":9155,"pupil":9156,"dreary":9157,"crumbs":9158,"feminine":9159,"eyebrows":9160,"pharaoh":9161,"gale":9162,"omn":9163,"pomp":9164,"tuck":9165,"vag":9166,"ware":9167,"##rons":9168,"##bation":9169,"##amble":9170,"prior":9171,"wendy":9172,"meek":9173,"depended":9174,"liable":9175,"exult":9176,"##oping":9177,"marcell":9178,"scound":9179,"eyel":9180,"##ixt":9181,"suppressed":9182,"wond":9183,"curled":9184,"patty":9185,"penal":9186,"defense":9187,"faithfully":9188,"concert":9189,"treaty":9190,"types":9191,"darcy":9192,"substantial":9193,"towers":9194,"communic":9195,"heroic":9196,"praised":9197,"radiant":9198,"uneasiness":9199,"lingered":9200,"ornament":9201,"sobbed":9202,"intimacy":9203,"vacant":9204,"anticipated":9205,"infantry":9206,"columns":9207,"extremity":9208,"chapel":9209,"fuss":9210,"mabel":9211,"maker":9212,"tack":9213,"tues":9214,"##ipper":9215,"##omed":9216,"##lys":9217,"##ilian":9218,"lecture":9219,"worsh":9220,"bruce":9221,"spake":9222,"carries":9223,"cargo":9224,"momentary":9225,"humming":9226,"construction":9227,"sweat":9228,"babies":9229,"posts":9230,"venerable":9231,"daniel":9232,"substances":9233,"cooked":9234,"statue":9235,"samuel":9236,"rebu":9237,"augustine":9238,"hunts":9239,"emerged":9240,"investigation":9241,"##break":9242,"abundant":9243,"fantastic":9244,"discharge":9245,"buffal":9246,"attachment":9247,"resentment":9248,"irresistible":9249,"abyss":9250,"tuesday":9251,"cant":9252,"gret":9253,"hark":9254,"lakes":9255,"piled":9256,"wigg":9257,"##zan":9258,"##itched":9259,"heated":9260,"hears":9261,"##ama":9262,"##illings":9263,"allowing":9264,"chick":9265,"flush":9266,"blot":9267,"resort":9268,"begging":9269,"retained":9270,"armour":9271,"highway":9272,"hardship":9273,"untr":9274,"mines":9275,"artistic":9276,"harp":9277,"decay":9278,"burg":9279,"##arrow":9280,"chancellor":9281,"teachers":9282,"complaint":9283,"pett":9284,"dimly":9285,"opportunities":9286,"choked":9287,"chopped":9288,"valleys":9289,"adventur":9290,"dora":9291,"reckless":9292,"barbara":9293,"grieved":9294,"victims":9295,"mechanical":9296,"panting":9297,"liquor":9298,"criticism":9299,"ambitious":9300,"skilful":9301,"ghastly":9302,"pious":9303,"##nings":9304,"##din":9305,"##bows":9306,"##omet":9307,"##irk":9308,"reaction":9309,"sung":9310,"myth":9311,"exting":9312,"envelope":9313,"peg":9314,"crop":9315,"evenings":9316,"compact":9317,"consulted":9318,"##gger":9319,"conform":9320,"appearing":9321,"irrit":9322,"corps":9323,"salvation":9324,"approved":9325,"mills":9326,"dealing":9327,"acquire":9328,"remarkably":9329,"springing":9330,"hyd":9331,"solely":9332,"attending":9333,"heights":9334,"talents":9335,"exclamation":9336,"nerve":9337,"drifted":9338,"feeding":9339,"crawled":9340,"pilot":9341,"scholars":9342,"contradict":9343,"ancestors":9344,"hospitality":9345,"pagan":9346,"bann":9347,"cos":9348,"dain":9349,"mum":9350,"pint":9351,"rip":9352,"##iations":9353,"beer":9354,"butcher":9355,"##riel":9356,"##osis":9357,"##inda":9358,"##unks":9359,"##oped":9360,"carriages":9361,"plane":9362,"##ilda":9363,"partial":9364,"scor":9365,"##ivities":9366,"presum":9367,"courty":9368,"monks":9369,"dragging":9370,"curt":9371,"awfully":9372,"secre":9373,"sweeping":9374,"meetings":9375,"animated":9376,"disappro":9377,"growled":9378,"jumping":9379,"stockings":9380,"gaily":9381,"dissip":9382,"luncheon":9383,"bridle":9384,"sobbing":9385,"##bourne":9386,"ardent":9387,"groaned":9388,"marcella":9389,"bib":9390,"dined":9391,"lame":9392,"pyr":9393,"ti":9394,"##occ":9395,"##away":9396,"##uation":9397,"toes":9398,"toast":9399,"##itably":9400,"##itimate":9401,"##etically":9402,"unity":9403,"outrage":9404,"plump":9405,"comprom":9406,"eminent":9407,"invite":9408,"sleepy":9409,"esther":9410,"respectfully":9411,"tommy":9412,"yea":9413,"repeating":9414,"convince":9415,"sinister":9416,"antagon":9417,"complicated":9418,"temperament":9419,"##nesday":9420,"philosoph":9421,"wednesday":9422,"inhabited":9423,"procured":9424,"obstin":9425,"spoiled":9426,"vaguely":9427,"tablesp":9428,"unreason":9429,"shrugged":9430,"jungle":9431,"ginger":9432,"ponies":9433,"vit":9434,"##lings":9435,"##press":9436,"toad":9437,"##stead":9438,"##ppers":9439,"##usively":9440,"##ripp":9441,"thereof":9442,"##ortions":9443,"whereby":9444,"##inton":9445,"##ggs":9446,"acute":9447,"##soever":9448,"formation":9449,"excite":9450,"simult":9451,"harbor":9452,"rugged":9453,"despised":9454,"robber":9455,"astron":9456,"bounds":9457,"complained":9458,"politic":9459,"sticking":9460,"tastes":9461,"opera":9462,"virtuous":9463,"dusty":9464,"suspicions":9465,"latest":9466,"dipl":9467,"superiority":9468,"sexual":9469,"elderly":9470,"infinitely":9471,"sulph":9472,"dantes":9473,"dainty":9474,"cul":9475,"cage":9476,"hanged":9477,"higg":9478,"##mates":9479,"##erity":9480,"##lyn":9481,"fren":9482,"allies":9483,"converse":9484,"##ulus":9485,"exter":9486,"##pection":9487,"twins":9488,"##elled":9489,"overth":9490,"pea":9491,"beforehand":9492,"blunt":9493,"backed":9494,"surgeon":9495,"kindred":9496,"parr":9497,"buzz":9498,"snuff":9499,"earthqu":9500,"explo":9501,"estates":9502,"array":9503,"respectful":9504,"transm":9505,"princesses":9506,"memor":9507,"spotted":9508,"deserves":9509,"hesitating":9510,"stormy":9511,"communicate":9512,"hypocr":9513,"feverish":9514,"prudent":9515,"politely":9516,"embarrassed":9517,"doomed":9518,"eccles":9519,"garrison":9520,"celia":9521,"fret":9522,"pans":9523,"pont":9524,"yor":9525,"zad":9526,"##inn":9527,"oft":9528,"##ona":9529,"##aria":9530,"##idity":9531,"stur":9532,"reapp":9533,"socr":9534,"upwards":9535,"tray":9536,"##ciences":9537,"disaster":9538,"perce":9539,"percy":9540,"thrill":9541,"downward":9542,"plaster":9543,"watson":9544,"techn":9545,"stealth":9546,"metaph":9547,"prominent":9548,"secondly":9549,"husbands":9550,"divor":9551,"massive":9552,"westward":9553,"turk":9554,"damage":9555,"defeated":9556,"greece":9557,"torch":9558,"keenly":9559,"lanyard":9560,"commissioner":9561,"propriety":9562,"appropriate":9563,"gorgeous":9564,"pencroft":9565,"bachelor":9566,"andrea":9567,"fyodor":9568,"diplom":9569,"bi":9570,"ced":9571,"lumber":9572,"padd":9573,"wreat":9574,"##uate":9575,"##iantly":9576,"##era":9577,"shillings":9578,"##iron":9579,"reigned":9580,"alf":9581,"##asty":9582,"##unting":9583,"tru":9584,"##agers":9585,"##inks":9586,"marquis":9587,"##abouts":9588,"blushed":9589,"remo":9590,"impud":9591,"counting":9592,"armor":9593,"restaur":9594,"tragic":9595,"assigned":9596,"##rup":9597,"oppressed":9598,"objected":9599,"belle":9600,"verily":9601,"verloc":9602,"saints":9603,"##zzle":9604,"uttering":9605,"originally":9606,"costume":9607,"tongues":9608,"henceforth":9609,"spectators":9610,"rolls":9611,"republican":9612,"sincerely":9613,"governess":9614,"tyranny":9615,"overwhelmed":9616,"eloquence":9617,"adorned":9618,"embroidered":9619,"petersburg":9620,"shuddered":9621,"nail":9622,"pulse":9623,"vault":9624,"##eart":9625,"##ross":9626,"##bons":9627,"##inald":9628,"##isen":9629,"whale":9630,"heaps":9631,"##omer":9632,"shapes":9633,"##lym":9634,"seasons":9635,"chanced":9636,"mantle":9637,"alb":9638,"abuse":9639,"##akable":9640,"##elity":9641,"##quate":9642,"gramm":9643,"crush":9644,"glor":9645,"swing":9646,"jove":9647,"joint":9648,"maz":9649,"expenses":9650,"insign":9651,"exclaim":9652,"escort":9653,"ridden":9654,"praying":9655,"bottles":9656,"tavern":9657,"descending":9658,"panic":9659,"extending":9660,"undertaking":9661,"blankets":9662,"vicar":9663,"restraint":9664,"negroes":9665,"treasury":9666,"navy":9667,"exercises":9668,"advertis":9669,"coinc":9670,"brutal":9671,"henrietta":9672,"bessy":9673,"almight":9674,"staggered":9675,"haughty":9676,"diet":9677,"dyn":9678,"fiend":9679,"fits":9680,"tab":9681,"##han":9682,"##yon":9683,"##ini":9684,"##entric":9685,"##chus":9686,"repl":9687,"exal":9688,"manager":9689,"knit":9690,"unqu":9691,"coats":9692,"gravel":9693,"monaster":9694,"parent":9695,"extract":9696,"sprung":9697,"maids":9698,"languid":9699,"knocking":9700,"impert":9701,"ruled":9702,"extend":9703,"mysteries":9704,"recorded":9705,"retreated":9706,"shaft":9707,"unexpectedly":9708,"fulfil":9709,"attentively":9710,"philosophers":9711,"##worthy":9712,"sustained":9713,"consumption":9714,"involuntarily":9715,"rascal":9716,"whiskers":9717,"adjoining":9718,"courtyard":9719,"ecclesi":9720,"dou":9721,"ferv":9722,"gut":9723,"gild":9724,"tank":9725,"tumbled":9726,"wan":9727,"##rent":9728,"##aire":9729,"##dened":9730,"##bird":9731,"##ithe":9732,"sacr":9733,"sequ":9734,"deject":9735,"chew":9736,"##osa":9737,"outst":9738,"everl":9739,"imitation":9740,"phill":9741,"drain":9742,"traced":9743,"##psed":9744,"sentences":9745,"incense":9746,"incomp":9747,"bestow":9748,"snap":9749,"sniff":9750,"device":9751,"cracked":9752,"strip":9753,"limb":9754,"widely":9755,"costly":9756,"shadowy":9757,"explaining":9758,"designed":9759,"fetched":9760,"nodding":9761,"neighboring":9762,"oxford":9763,"unusually":9764,"submitted":9765,"contemplation":9766,"esteemed":9767,"dramatic":9768,"fundamental":9769,"prejudice":9770,"analysis":9771,"gabriel":9772,"chorus":9773,"##urrection":9774,"socrates":9775,"dial":9776,"hart":9777,"mim":9778,"mord":9779,"rou":9780,"wi":9781,"##rich":9782,"##uction":9783,"##ersed":9784,"##istry":9785,"misch":9786,"arbit":9787,"trades":9788,"canoe":9789,"##cile":9790,"caress":9791,"carth":9792,"blushing":9793,"passive":9794,"attraction":9795,"slipping":9796,"courts":9797,"worlds":9798,"clement":9799,"edges":9800,"finer":9801,"talks":9802,"besee":9803,"realm":9804,"decis":9805,"winchester":9806,"breaks":9807,"limp":9808,"admiring":9809,"storms":9810,"bursting":9811,"resembled":9812,"preceded":9813,"thirsty":9814,"legislature":9815,"ingenious":9816,"enclosed":9817,"architecture":9818,"transparent":9819,"tablespoonful":9820,"wreath":9821,"almighty":9822,"aer":9823,"hounds":9824,"jess":9825,"pose":9826,"ripp":9827,"##oly":9828,"##ae":9829,"##yers":9830,"##gone":9831,"tonight":9832,"##icy":9833,"##utable":9834,"##imble":9835,"sting":9836,"noticing":9837,"wegg":9838,"chant":9839,"##aches":9840,"disad":9841,"stray":9842,"##pered":9843,"conserv":9844,"countless":9845,"plead":9846,"pleases":9847,"harold":9848,"syll":9849,"discoura":9850,"considerations":9851,"equip":9852,"touches":9853,"freck":9854,"decline":9855,"detected":9856,"tyrant":9857,"negative":9858,"idol":9859,"nicely":9860,"ruby":9861,"argue":9862,"juliet":9863,"##ippi":9864,"rejoice":9865,"nineteenth":9866,"protestant":9867,"surroundings":9868,"significant":9869,"discern":9870,"boughs":9871,"organs":9872,"dins":9873,"dagger":9874,"eb":9875,"mic":9876,"viv":9877,"##gia":9878,"secl":9879,"alliance":9880,"##raft":9881,"abbe":9882,"underground":9883,"hereafter":9884,"earned":9885,"##acinth":9886,"capit":9887,"curls":9888,"poles":9889,"calf":9890,"acres":9891,"saluted":9892,"striving":9893,"examples":9894,"messages":9895,"tempered":9896,"climate":9897,"weariness":9898,"mammy":9899,"rejoicing":9900,"roofs":9901,"greeks":9902,"blanket":9903,"obtaining":9904,"indulgence":9905,"specific":9906,"economy":9907,"reflecting":9908,"sustain":9909,"applause":9910,"gospel":9911,"perplexity":9912,"reappear":9913,"bored":9914,"bacon":9915,"dal":9916,"dul":9917,"ropes":9918,"tint":9919,"##oft":9920,"##pen":9921,"##itous":9922,"##anning":9923,"##rep":9924,"fry":9925,"sue":9926,"neut":9927,"##ppy":9928,"lighter":9929,"fel":9930,"logs":9931,"placid":9932,"mole":9933,"conspir":9934,"##ivable":9935,"##ensed":9936,"humph":9937,"stepping":9938,"sentin":9939,"harvest":9940,"finan":9941,"admission":9942,"sounding":9943,"horsemen":9944,"bury":9945,"practised":9946,"harmless":9947,"grip":9948,"proofs":9949,"gaunt":9950,"birthday":9951,"athos":9952,"industrial":9953,"adjust":9954,"fulfilled":9955,"eccentric":9956,"naughty":9957,"museum":9958,"symbol":9959,"pavl":9960,"athenians":9961,"disposal":9962,"academy":9963,"wondrous":9964,"perceval":9965,"disadvant":9966,"dinsmore":9967,"aus":9968,"bounded":9969,"dome":9970,"dand":9971,"gust":9972,"jelly":9973,"riv":9974,"##pool":9975,"##iage":9976,"##cence":9977,"##erved":9978,"##aser":9979,"shab":9980,"shots":9981,"##imately":9982,"withered":9983,"hermit":9984,"notions":9985,"soothing":9986,"lizzie":9987,"expend":9988,"##unned":9989,"league":9990,"##oles":9991,"intox":9992,"strokes":9993,"margin":9994,"mississ":9995,"glare":9996,"resigned":9997,"interven":9998,"satin":9999,"confounded":10000,"prophe":10001,"skirt":10002,"##bod":10003,"eighteenth":10004,"barr":10005,"redoub":10006,"oppose":10007,"wallace":10008,"devour":10009,"discretion":10010,"suspense":10011,"softened":10012,"corp":10013,"salute":10014,"err":10015,"modesty":10016,"shrank":10017,"honestly":10018,"vigil":10019,"naples":10020,"illustration":10021,"hawk":10022,"ornaments":10023,"austral":10024,"problems":10025,"neatly":10026,"deposited":10027,"coroner":10028,"interpretation":10029,"weren":10030,"superintendent":10031,"rostov":10032,"bowing":10033,"fuel":10034,"hue":10035,"kil":10036,"kicked":10037,"vass":10038,"##fare":10039,"##water":10040,"##vis":10041,"##enet":10042,"##esa":10043,"##anth":10044,"bef":10045,"shattered":10046,"stamm":10047,"sally":10048,"chip":10049,"lew":10050,"carn":10051,"peering":10052,"guar":10053,"subord":10054,"barren":10055,"polish":10056,"questioning":10057,"##cerity":10058,"mistakes":10059,"studio":10060,"portions":10061,"thorpe":10062,"languages":10063,"passionately":10064,"sympathetic":10065,"crowns":10066,"doris":10067,"representatives":10068,"audible":10069,"gait":10070,"neighbouring":10071,"bathed":10072,"alexey":10073,"concerns":10074,"caroline":10075,"champion":10076,"rejected":10077,"daddy":10078,"transferred":10079,"overlook":10080,"vizier":10081,"intolerable":10082,"higgins":10083,"baz":10084,"mack":10085,"puss":10086,"tas":10087,"##mate":10088,"##isons":10089,"##ingle":10090,"seizing":10091,"didst":10092,"flint":10093,"##rod":10094,"eman":10095,"opens":10096,"endowed":10097,"happiest":10098,"instruction":10099,"##ggy":10100,"worldly":10101,"warrant":10102,"##phy":10103,"hardy":10104,"blaze":10105,"paw":10106,"suffice":10107,"fireplace":10108,"fortress":10109,"fifteenth":10110,"winning":10111,"requested":10112,"shades":10113,"authors":10114,"occurrence":10115,"rainbow":10116,"packet":10117,"communicated":10118,"obstacle":10119,"rustling":10120,"quantities":10121,"scraps":10122,"refrain":10123,"lingering":10124,"vegetable":10125,"historical":10126,"efficient":10127,"mournful":10128,"shawl":10129,"indefinite":10130,"scandal":10131,"kettle":10132,"santa":10133,"cradle":10134,"exalted":10135,"mississippi":10136,"bery":10137,"dow":10138,"fou":10139,"ojo":10140,"theod":10141,"##arm":10142,"ank":10143,"notary":10144,"##anders":10145,"##istics":10146,"failing":10147,"##eled":10148,"##inea":10149,"disreg":10150,"crisp":10151,"expensive":10152,"inspiration":10153,"##shire":10154,"differently":10155,"elevation":10156,"circuit":10157,"morals":10158,"escaping":10159,"damned":10160,"peculiarly":10161,"discussing":10162,"possessions":10163,"reveal":10164,"oxen":10165,"contempor":10166,"corresponding":10167,"stooping":10168,"vegetables":10169,"irritated":10170,"treachery":10171,"elephant":10172,"ambassador":10173,"bleeding":10174,"foremost":10175,"##ele":10176,"##egr":10177,"##sky":10178,"##upp":10179,"thri":10180,"##idences":10181,"frail":10182,"seeds":10183,"web":10184,"dean":10185,"dove":10186,"converted":10187,"manly":10188,"sped":10189,"##agne":10190,"grush":10191,"usur":10192,"overh":10193,"undergo":10194,"foam":10195,"letty":10196,"speck":10197,"relating":10198,"curve":10199,"insin":10200,"##ieties":10201,"continuing":10202,"forgiven":10203,"painfully":10204,"richly":10205,"judging":10206,"ledge":10207,"##maid":10208,"hyacinth":10209,"turf":10210,"breadth":10211,"venice":10212,"splendor":10213,"piercing":10214,"holmes":10215,"##rington":10216,"pitched":10217,"pitiful":10218,"acquaintances":10219,"sheltered":10220,"plunge":10221,"attentive":10222,"shriek":10223,"chuckled":10224,"sleeves":10225,"exertion":10226,"briskly":10227,"ceremonies":10228,"strolled":10229,"peoples":10230,"uproar":10231,"pyram":10232,"everlasting":10233,"ego":10234,"ker":10235,"tough":10236,"##time":10237,"##hem":10238,"##bot":10239,"##inges":10240,"##ller":10241,"##icial":10242,"##idious":10243,"fork":10244,"reared":10245,"frowned":10246,"##amin":10247,"deme":10248,"exasper":10249,"unnatural":10250,"thenard":10251,"grotes":10252,"loft":10253,"proves":10254,"swed":10255,"shallow":10256,"commod":10257,"delayed":10258,"refusal":10259,"suffrage":10260,"lawyers":10261,"visions":10262,"personage":10263,"reaches":10264,"patent":10265,"governments":10266,"approval":10267,"crab":10268,"accordance":10269,"luke":10270,"successfully":10271,"frighten":10272,"settling":10273,"claw":10274,"kneeling":10275,"unfold":10276,"lodgings":10277,"brighter":10278,"desperately":10279,"lynde":10280,"illustrious":10281,"intending":10282,"arabella":10283,"drama":10284,"spinning":10285,"gnaw":10286,"tilney":10287,"buttons":10288,"reef":10289,"hoofs":10290,"vehicle":10291,"bin":10292,"gid":10293,"gaw":10294,"##aving":10295,"##wich":10296,"thurs":10297,"##inently":10298,"##ener":10299,"##armed":10300,"##ometer":10301,"##leby":10302,"asyl":10303,"##urst":10304,"sage":10305,"##illes":10306,"brushed":10307,"coax":10308,"strode":10309,"peaks":10310,"ending":10311,"caps":10312,"homeward":10313,"colonies":10314,"horace":10315,"artists":10316,"edwin":10317,"##ocation":10318,"##ocity":10319,"spray":10320,"chronic":10321,"afflicted":10322,"rug":10323,"discon":10324,"discreet":10325,"stripped":10326,"brightness":10327,"halls":10328,"seventeenth":10329,"denis":10330,"attacks":10331,"rapidity":10332,"hostess":10333,"foliage":10334,"vainly":10335,"sorrowful":10336,"defended":10337,"debts":10338,"endeavored":10339,"amazing":10340,"yielding":10341,"radiance":10342,"lacking":10343,"grimly":10344,"females":10345,"unlock":10346,"gestures":10347,"intensely":10348,"pitcher":10349,"cyl":10350,"disturbance":10351,"insects":10352,"rebellion":10353,"grushenka":10354,"thenardier":10355,"thursday":10356,"sly":10357,"tents":10358,"ud":10359,"yan":10360,"##lain":10361,"##gage":10362,"##wor":10363,"##woman":10364,"##escrib":10365,"whipped":10366,"stan":10367,"anon":10368,"saul":10369,"chival":10370,"congreg":10371,"##unci":10372,"lect":10373,"leop":10374,"una":10375,"unim":10376,"##olis":10377,"##asses":10378,"loath":10379,"peak":10380,"##fton":10381,"contend":10382,"slopes":10383,"wrest":10384,"wrinkled":10385,"repet":10386,"charlie":10387,"monkeys":10388,"drows":10389,"rounded":10390,"milan":10391,"affl":10392,"observer":10393,"float":10394,"discovering":10395,"chiefs":10396,"occasioned":10397,"babe":10398,"clapped":10399,"nobleman":10400,"essentially":10401,"forbear":10402,"sources":10403,"hinder":10404,"cautious":10405,"emerald":10406,"scrap":10407,"subsist":10408,"griev":10409,"otter":10410,"marvelous":10411,"pulp":10412,"monoton":10413,"dougl":10414,"coss":10415,"ej":10416,"fu":10417,"lime":10418,"ric":10419,"##obs":10420,"##ras":10421,"##iors":10422,"##inor":10423,"##atching":10424,"token":10425,"bellow":10426,"##uther":10427,"ascent":10428,"stumbled":10429,"herald":10430,"frantic":10431,"allison":10432,"orle":10433,"noises":10434,"trunks":10435,"usher":10436,"overboard":10437,"scatter":10438,"indescrib":10439,"spending":10440,"grab":10441,"graves":10442,"refusing":10443,"cured":10444,"devils":10445,"courtiers":10446,"terrific":10447,"southward":10448,"##ugged":10449,"thickness":10450,"petty":10451,"mounting":10452,"urge":10453,"malice":10454,"smoked":10455,"##ynpl":10456,"reverse":10457,"designs":10458,"rattle":10459,"regretted":10460,"stuffed":10461,"cherry":10462,"vicinity":10463,"ivory":10464,"whistling":10465,"film":10466,"ribbon":10467,"troublesome":10468,"##criptions":10469,"excessive":10470,"cigarette":10471,"decorated":10472,"gwynpl":10473,"tube":10474,"noisy":10475,"hazard":10476,"resolutely":10477,"carpenter":10478,"nostrils":10479,"insignific":10480,"baked":10481,"baff":10482,"elf":10483,"jacqu":10484,"mush":10485,"pest":10486,"sill":10487,"vices":10488,"##ugs":10489,"##wall":10490,"shew":10491,"selling":10492,"chich":10493,"##raged":10494,"manhood":10495,"alien":10496,"##astrop":10497,"##olics":10498,"afar":10499,"perched":10500,"plent":10501,"glist":10502,"glided":10503,"hob":10504,"consumed":10505,"evils":10506,"rests":10507,"purity":10508,"paraly":10509,"greed":10510,"artillery":10511,"##amped":10512,"doubled":10513,"footman":10514,"pasture":10515,"apology":10516,"forthwith":10517,"unequ":10518,"pursuing":10519,"wisely":10520,"sacrifices":10521,"positions":10522,"plato":10523,"casual":10524,"prosperous":10525,"fidelity":10526,"complaints":10527,"henriette":10528,"tranquil":10529,"peeped":10530,"dazzling":10531,"beryl":10532,"gwynplaine":10533,"cate":10534,"icy":10535,"lac":10536,"sits":10537,"sciences":10538,"vin":10539,"yoke":10540,"##resh":10541,"##lson":10542,"##fig":10543,"##zes":10544,"##jah":10545,"##ato":10546,"beam":10547,"##lection":10548,"##ctic":10549,"frig":10550,"framed":10551,"nell":10552,"doings":10553,"##thorpe":10554,"##oph":10555,"canad":10556,"pend":10557,"##ressing":10558,"##angled":10559,"indist":10560,"reporter":10561,"chariot":10562,"lighting":10563,"monument":10564,"elinor":10565,"paras":10566,"incidents":10567,"darkened":10568,"bug":10569,"catastrop":10570,"trivial":10571,"grandeur":10572,"expert":10573,"motions":10574,"dealt":10575,"compliments":10576,"miracles":10577,"tribute":10578,"homer":10579,"proclaimed":10580,"undertaken":10581,"conquest":10582,"indignantly":10583,"screaming":10584,"exhibit":10585,"sentimental":10586,"officials":10587,"abstract":10588,"annoyance":10589,"attributed":10590,"barbarous":10591,"efficiency":10592,"ducks":10593,"perplexed":10594,"concentrated":10595,"tranquill":10596,"specimens":10597,"vexation":10598,"transformed":10599,"invalid":10600,"prolonged":10601,"legend":10602,"jonathan":10603,"wiggily":10604,"grotesque":10605,"ejac":10606,"orleans":10607,"bumble":10608,"fiction":10609,"gap":10610,"lark":10611,"ron":10612,"tay":10613,"tac":10614,"tiss":10615,"vind":10616,"##main":10617,"##rice":10618,"##gom":10619,"##gery":10620,"##gency":10621,"##dled":10622,"##dling":10623,"##bid":10624,"##ero":10625,"##inqu":10626,"##atics":10627,"whites":10628,"##icide":10629,"unanim":10630,"brun":10631,"##igan":10632,"fails":10633,"##eline":10634,"boards":10635,"adap":10636,"carav":10637,"poll":10638,"crom":10639,"##ffic":10640,"seemingly":10641,"compens":10642,"sworn":10643,"##cloth":10644,"supple":10645,"elbows":10646,"humbly":10647,"insuff":10648,"sixteenth":10649,"airs":10650,"airship":10651,"syd":10652,"besie":10653,"merrily":10654,"sprinkle":10655,"##bray":10656,"causing":10657,"excepting":10658,"respecting":10659,"commonplace":10660,"slack":10661,"joyful":10662,"sends":10663,"labors":10664,"##cribe":10665,"malign":10666,"endeavor":10667,"relationship":10668,"obstinate":10669,"logical":10670,"penetrated":10671,"fluttering":10672,"marianne":10673,"shivered":10674,"repentance":10675,"sewing":10676,"oyster":10677,"oysters":10678,"cushion":10679,"alighted":10680,"energetic":10681,"squirrel":10682,"stubborn":10683,"elaborate":10684,"borrowed":10685,"barricade":10686,"confronted":10687,"scoundrel":10688,"ecclesiast":10689,"douglas":10690,"bump":10691,"cuth":10692,"ditch":10693,"data":10694,"jur":10695,"lonel":10696,"mow":10697,"morr":10698,"pater":10699,"ts":10700,"vow":10701,"##cers":10702,"##frey":10703,"##kh":10704,"##ders":10705,"##bish":10706,"##bles":10707,"##isance":10708,"bever":10709,"beams":10710,"stab":10711,"##adays":10712,"saunders":10713,"##alling":10714,"##iless":10715,"canal":10716,"nowadays":10717,"contracted":10718,"imposing":10719,"satan":10720,"treason":10721,"blake":10722,"darker":10723,"depressed":10724,"clearer":10725,"understands":10726,"tries":10727,"devout":10728,"##ooner":10729,"declaring":10730,"sands":10731,"cabb":10732,"occurs":10733,"influences":10734,"scrub":10735,"recovery":10736,"travels":10737,"glee":10738,"exhibition":10739,"sarc":10740,"unlucky":10741,"winged":10742,"drifting":10743,"scenery":10744,"##castle":10745,"cruelly":10746,"swayed":10747,"##ihil":10748,"bunny":10749,"conventional":10750,"blossoms":10751,"announcement":10752,"synony":10753,"extravagant":10754,"hypothesis":10755,"sulphur":10756,"##gomery":10757,"aj":10758,"cau":10759,"dat":10760,"mes":10761,"tan":10762,"wires":10763,"##ridge":10764,"##aced":10765,"##iac":10766,"##dler":10767,"heaped":10768,"beech":10769,"##etime":10770,"##tery":10771,"reins":10772,"prick":10773,"##ulent":10774,"##rable":10775,"goal":10776,"disli":10777,"thrice":10778,"persian":10779,"assented":10780,"snakes":10781,"fuller":10782,"realised":10783,"patches":10784,"devote":10785,"deform":10786,"disappoint":10787,"##aska":10788,"northward":10789,"legitimate":10790,"##annie":10791,"necklace":10792,"functions":10793,"yelled":10794,"##picious":10795,"obligation":10796,"faltered":10797,"habitual":10798,"substitute":10799,"shroud":10800,"scratched":10801,"earnestness":10802,"pretending":10803,"virg":10804,"organized":10805,"gaining":10806,"exceeding":10807,"hinted":10808,"prospects":10809,"resembling":10810,"whistled":10811,"appreciation":10812,"mechanically":10813,"pistols":10814,"parsley":10815,"ultimate":10816,"mexico":10817,"repaired":10818,"shirley":10819,"automob":10820,"revelation":10821,"fertile":10822,"proverb":10823,"buffalo":10824,"extingu":10825,"dies":10826,"gan":10827,"jem":10828,"piles":10829,"session":10830,"##houn":10831,"hack":10832,"##velled":10833,"sall":10834,"therewith":10835,"alph":10836,"whatsoever":10837,"ungr":10838,"abide":10839,"roy":10840,"canst":10841,"slide":10842,"infall":10843,"delir":10844,"terrace":10845,"signor":10846,"calhoun":10847,"effected":10848,"creed":10849,"robb":10850,"counc":10851,"typ":10852,"starved":10853,"disgusted":10854,"cupboard":10855,"##ikes":10856,"sacrificed":10857,"pillars":10858,"inventor":10859,"paula":10860,"await":10861,"montgomery":10862,"revolutionary":10863,"deliberate":10864,"aristocratic":10865,"coolly":10866,"unmist":10867,"consisting":10868,"tons":10869,"discharged":10870,"noiseless":10871,"appealed":10872,"blossom":10873,"pledge":10874,"prelim":10875,"removing":10876,"sydney":10877,"bard":10878,"cask":10879,"eu":10880,"pines":10881,"ties":10882,"##lorn":10883,"##bling":10884,"theories":10885,"suits":10886,"chalk":10887,"spaces":10888,"flaming":10889,"plaint":10890,"remn":10891,"loveliness":10892,"reprodu":10893,"gotten":10894,"infirm":10895,"traitor":10896,"assail":10897,"##actor":10898,"insensible":10899,"continuous":10900,"harri":10901,"honesty":10902,"severity":10903,"illusion":10904,"mists":10905,"palaces":10906,"expressive":10907,"salary":10908,"lucian":10909,"majestic":10910,"daisy":10911,"accepting":10912,"postp":10913,"sincerity":10914,"punch":10915,"furnace":10916,"damon":10917,"periods":10918,"olive":10919,"instincts":10920,"nervously":10921,"blocks":10922,"filth":10923,"privileges":10924,"otto":10925,"resignation":10926,"imprisoned":10927,"vigorously":10928,"receipt":10929,"russell":10930,"bryce":10931,"tacit":10932,"disliked":10933,"bang":10934,"cale":10935,"fainted":10936,"gord":10937,"jup":10938,"lag":10939,"pite":10940,"ulys":10941,"wiz":10942,"##eers":10943,"##rain":10944,"##rude":10945,"##sal":10946,"##vy":10947,"stain":10948,"aloft":10949,"theme":10950,"arb":10951,"perceptible":10952,"pepp":10953,"smother":10954,"foes":10955,"grapes":10956,"elph":10957,"miner":10958,"teresa":10959,"parcel":10960,"snar":10961,"continues":10962,"cuts":10963,"estimate":10964,"democracy":10965,"products":10966,"sweetest":10967,"publicly":10968,"matches":10969,"baba":10970,"attempting":10971,"petition":10972,"melod":10973,"conclusions":10974,"magnet":10975,"urgent":10976,"horrors":10977,"alarming":10978,"berth":10979,"rosal":10980,"dissatisf":10981,"banner":10982,"resemble":10983,"rushes":10984,"ghosts":10985,"smelling":10986,"odious":10987,"javert":10988,"deceased":10989,"ribbons":10990,"ensued":10991,"shrieked":10992,"whirling":10993,"reconc":10994,"confidential":10995,"inevitably":10996,"withdrawn":10997,"moisture":10998,"available":10999,"loyalty":11000,"specimen":11001,"beaver":11002,"indispens":11003,"tipt":11004,"lewis":11005,"cromwell":11006,"ulysses":11007,"ion":11008,"lump":11009,"mused":11010,"moust":11011,"olym":11012,"pitt":11013,"rats":11014,"vile":11015,"##isms":11016,"shah":11017,"##ctor":11018,"exile":11019,"goats":11020,"commend":11021,"##itte":11022,"arisen":11023,"##igr":11024,"clue":11025,"crick":11026,"swo":11027,"lastly":11028,"##cling":11029,"charmed":11030,"charley":11031,"regained":11032,"biggest":11033,"muslin":11034,"equipped":11035,"defarge":11036,"destination":11037,"sweetly":11038,"detest":11039,"vanqu":11040,"snowy":11041,"germans":11042,"proceeds":11043,"kisses":11044,"garret":11045,"gratification":11046,"possesses":11047,"reverend":11048,"wickedness":11049,"epis":11050,"beware":11051,"rusty":11052,"ascending":11053,"obscurity":11054,"taxes":11055,"missionary":11056,"fluttered":11057,"fascinating":11058,"vehem":11059,"prejudices":11060,"summons":11061,"adela":11062,"crouched":11063,"helmet":11064,"assuming":11065,"varying":11066,"definition":11067,"secrecy":11068,"divorce":11069,"shabby":11070,"cuthbert":11071,"git":11072,"gert":11073,"hens":11074,"kins":11075,"lain":11076,"lones":11077,"lenn":11078,"pam":11079,"rim":11080,"rhe":11081,"tam":11082,"vamp":11083,"##ros":11084,"##lig":11085,"##kash":11086,"##bled":11087,"##rec":11088,"##eties":11089,"forlorn":11090,"##amations":11091,"unique":11092,"##ounding":11093,"bricks":11094,"afore":11095,"afresh":11096,"canada":11097,"##quar":11098,"groc":11099,"perv":11100,"perished":11101,"carbon":11102,"##roy":11103,"resear":11104,"composure":11105,"headlong":11106,"impass":11107,"preservation":11108,"joys":11109,"possibilities":11110,"conference":11111,"actors":11112,"##actions":11113,"insolent":11114,"sonya":11115,"expectations":11116,"objections":11117,"coral":11118,"matrim":11119,"crev":11120,"repeatedly":11121,"shrink":11122,"wider":11123,"blessings":11124,"latch":11125,"##asmuch":11126,"kenn":11127,"fragrant":11128,"uneasily":11129,"indulge":11130,"instructed":11131,"grasping":11132,"jenny":11133,"enlar":11134,"clutched":11135,"heathen":11136,"lava":11137,"involuntary":11138,"precaution":11139,"rhyth":11140,"subsequent":11141,"wholesome":11142,"whirled":11143,"courteous":11144,"discouraged":11145,"jupiter":11146,"bast":11147,"bully":11148,"mason":11149,"nib":11150,"rak":11151,"##wind":11152,"##bell":11153,"##isle":11154,"hey":11155,"##otic":11156,"onion":11157,"stables":11158,"manor":11159,"##ousing":11160,"##uman":11161,"##umsy":11162,"arc":11163,"##ishly":11164,"clumsy":11165,"covers":11166,"overhe":11167,"handled":11168,"blunder":11169,"partially":11170,"ohio":11171,"parag":11172,"buying":11173,"differences":11174,"englishmen":11175,"mediter":11176,"mirac":11177,"##strong":11178,"##rehensible":11179,"disappearance":11180,"pickwick":11181,"splendour":11182,"hamlet":11183,"destroying":11184,"constituted":11185,"executive":11186,"pinch":11187,"tito":11188,"gleamed":11189,"##piring":11190,"muddy":11191,"schemes":11192,"channels":11193,"achieved":11194,"timidly":11195,"swaying":11196,"victoria":11197,"skeleton":11198,"behavior":11199,"ethel":11200,"precautions":11201,"proprietor":11202,"muffled":11203,"daresay":11204,"simultaneously":11205,"earthquake":11206,"stammered":11207,"asylum":11208,"monotonous":11209,"indispensable":11210,"mediterranean":11211,"bubb":11212,"cripp":11213,"fath":11214,"fult":11215,"gill":11216,"mung":11217,"nought":11218,"sled":11219,"##ties":11220,"##gus":11221,"##dens":11222,"ther":11223,"##arine":11224,"herds":11225,"rece":11226,"chil":11227,"##thest":11228,"##osh":11229,"##ifted":11230,"code":11231,"daybreak":11232,"procl":11233,"remov":11234,"sombre":11235,"sermon":11236,"workman":11237,"##ocks":11238,"proportions":11239,"beauties":11240,"skies":11241,"horribly":11242,"barber":11243,"cheering":11244,"countrymen":11245,"depression":11246,"oppression":11247,"captains":11248,"squad":11249,"saloon":11250,"creator":11251,"duly":11252,"shaded":11253,"superb":11254,"errors":11255,"planchet":11256,"mainly":11257,"##parable":11258,"mutton":11259,"emptied":11260,"balin":11261,"berries":11262,"associations":11263,"banished":11264,"clubs":11265,"plantation":11266,"wheeled":11267,"##bbles":11268,"indulged":11269,"breeches":11270,"novelty":11271,"vegetation":11272,"grinned":11273,"abbey":11274,"sketch":11275,"semi":11276,"scrambled":11277,"taylor":11278,"ungrate":11279,"cable":11280,"cater":11281,"gir":11282,"riot":11283,"votes":11284,"##sen":11285,"##pence":11286,"##piece":11287,"##gate":11288,"##gory":11289,"##encer":11290,"##isation":11291,"shilling":11292,"asia":11293,"sau":11294,"##iche":11295,"abh":11296,"tro":11297,"quer":11298,"twelf":11299,"clown":11300,"boffin":11301,"flanders":11302,"##roken":11303,"partners":11304,"##ountable":11305,"compart":11306,"lasting":11307,"laure":11308,"interference":11309,"distracted":11310,"infern":11311,"traps":11312,"traversed":11313,"termed":11314,"betwixt":11315,"paws":11316,"lesser":11317,"alongside":11318,"schooner":11319,"hurst":11320,"companies":11321,"penit":11322,"imaginary":11323,"successive":11324,"memorable":11325,"hatch":11326,"practise":11327,"watchful":11328,"utterance":11329,"firmness":11330,"packing":11331,"attendance":11332,"williams":11333,"interruption":11334,"franklin":11335,"wagons":11336,"##forward":11337,"assuredly":11338,"rewarded":11339,"feebly":11340,"logic":11341,"poisoned":11342,"disciples":11343,"carolina":11344,"ticket":11345,"ravine":11346,"reluctantly":11347,"perfume":11348,"imprisonment":11349,"ingred":11350,"receives":11351,"prodigious":11352,"conjecture":11353,"skirts":11354,"inheritance":11355,"monastery":11356,"chichikov":11357,"canadian":11358,"robbery":11359,"twelfth":11360,"az":11361,"lance":11362,"naval":11363,"##oir":11364,"##cony":11365,"toy":11366,"shorter":11367,"##ircling":11368,"stem":11369,"frances":11370,"melt":11371,"alle":11372,"allusion":11373,"unin":11374,"arn":11375,"##ishness":11376,"troy":11377,"quoted":11378,"canoes":11379,"clark":11380,"crut":11381,"attire":11382,"subur":11383,"homely":11384,"giants":11385,"infancy":11386,"signature":11387,"sights":11388,"caliph":11389,"discord":11390,"hairs":11391,"finely":11392,"strife":11393,"joyfully":11394,"revived":11395,"consecr":11396,"struggles":11397,"astonishing":11398,"constitu":11399,"balcony":11400,"preference":11401,"basil":11402,"telegram":11403,"oaks":11404,"aimed":11405,"bishops":11406,"##flies":11407,"physicians":11408,"francisco":11409,"cultivation":11410,"marshal":11411,"whirlwind":11412,"tunnel":11413,"mexican":11414,"superstition":11415,"calamity":11416,"isolated":11417,"excursion":11418,"magazine":11419,"luminous":11420,"tranquillity":11421,"loneliness":11422,"lennox":11423,"baking":11424,"brib":11425,"cert":11426,"fib":11427,"kad":11428,"tet":11429,"##zo":11430,"shift":11431,"##alen":11432,"livel":11433,"##rah":11434,"##aston":11435,"knives":11436,"##unction":11437,"abomin":11438,"##apart":11439,"canyon":11440,"booth":11441,"loan":11442,"implied":11443,"##pty":11444,"disse":11445,"flank":11446,"crus":11447,"glaring":11448,"maur":11449,"skim":11450,"ideals":11451,"recru":11452,"fairest":11453,"circus":11454,"professed":11455,"devoured":11456,"particles":11457,"strive":11458,"churchyard":11459,"verge":11460,"victorious":11461,"recognise":11462,"silvery":11463,"##anche":11464,"physi":11465,"potent":11466,"constitute":11467,"gratified":11468,"senior":11469,"eventually":11470,"prompted":11471,"restrained":11472,"traditions":11473,"odor":11474,"novels":11475,"singularly":11476,"horizont":11477,"submission":11478,"obedient":11479,"executioner":11480,"attributes":11481,"disguised":11482,"contradiction":11483,"ruddy":11484,"rotten":11485,"diminished":11486,"random":11487,"lifetime":11488,"prostrate":11489,"celest":11490,"antiquity":11491,"enveloped":11492,"requisite":11493,"mischie":11494,"decisive":11495,"repetition":11496,"rhythm":11497,"fulton":11498,"gould":11499,"hud":11500,"hire":11501,"jug":11502,"lick":11503,"pork":11504,"tips":11505,"##uk":11506,"##giving":11507,"##bable":11508,"##itching":11509,"belly":11510,"shady":11511,"herod":11512,"anew":11513,"fritz":11514,"spra":11515,"spont":11516,"##aux":11517,"howl":11518,"plank":11519,"watches":11520,"impost":11521,"interrog":11522,"relics":11523,"insane":11524,"steer":11525,"greedy":11526,"bucc":11527,"honors":11528,"##covered":11529,"dripping":11530,"angles":11531,"rugg":11532,"annihil":11533,"viewed":11534,"supernatural":11535,"thickly":11536,"succeeding":11537,"costs":11538,"eastward":11539,"companionship":11540,"traveler":11541,"rosa":11542,"sanction":11543,"echoes":11544,"consulting":11545,"writings":11546,"ingenuity":11547,"perilous":11548,"cyrus":11549,"distributed":11550,"slippers":11551,"eugen":11552,"adversary":11553,"waverley":11554,"banners":11555,"outstretched":11556,"adapted":11557,"overheard":11558,"aversion":11559,"bure":11560,"baker":11561,"cem":11562,"eg":11563,"erupt":11564,"nathan":11565,"pere":11566,"racing":11567,"tess":11568,"veter":11569,"##rates":11570,"##dale":11571,"##bishop":11572,"toilet":11573,"##inged":11574,"##vered":11575,"reeds":11576,"suicide":11577,"meets":11578,"thereafter":11579,"mantel":11580,"unav":11581,"uninter":11582,"boom":11583,"overcoat":11584,"stress":11585,"plung":11586,"##berries":11587,"mull":11588,"scout":11589,"scales":11590,"joining":11591,"##igneur":11592,"slice":11593,"serves":11594,"worker":11595,"godfrey":11596,"phineas":11597,"edition":11598,"##issy":11599,"merits":11600,"elevent":11601,"tenn":11602,"##otto":11603,"truths":11604,"draws":11605,"delights":11606,"detained":11607,"payment":11608,"joyce":11609,"robinson":11610,"obliv":11611,"traveled":11612,"rubber":11613,"archbishop":11614,"revolt":11615,"recovering":11616,"gratify":11617,"martian":11618,"rulers":11619,"suggestions":11620,"lodged":11621,"expedient":11622,"chestnut":11623,"thompson":11624,"lyd":11625,"entertaining":11626,"identical":11627,"cooper":11628,"penetrate":11629,"electricity":11630,"frogs":11631,"flocks":11632,"fascinated":11633,"encouraging":11634,"magistrates":11635,"accurate":11636,"treacherous":11637,"illuminated":11638,"brooding":11639,"orphan":11640,"valet":11641,"chopin":11642,"girdle":11643,"pou":11644,"pell":11645,"yach":11646,"##tieth":11647,"##pie":11648,"##car":11649,"##west":11650,"##dam":11651,"##escent":11652,"onions":11653,"stor":11654,"stages":11655,"##kee":11656,"noah":11657,"lever":11658,"legged":11659,"##ittens":11660,"trod":11661,"spencer":11662,"handy":11663,"carroll":11664,"crude":11665,"offensive":11666,"spears":11667,"eminence":11668,"passenger":11669,"conscient":11670,"supposition":11671,"drug":11672,"hardened":11673,"steed":11674,"lawrence":11675,"bedside":11676,"reasonably":11677,"inviting":11678,"patr":11679,"ranch":11680,"valued":11681,"morland":11682,"rocking":11683,"striped":11684,"lukash":11685,"matilda":11686,"gracefully":11687,"popul":11688,"blinded":11689,"substit":11690,"wearily":11691,"argued":11692,"tapped":11693,"statements":11694,"supporting":11695,"coolness":11696,"proclaim":11697,"rebel":11698,"baronet":11699,"sparks":11700,"hello":11701,"phrases":11702,"fishermen":11703,"entreated":11704,"ultimately":11705,"controlled":11706,"displeasure":11707,"relax":11708,"eyelids":11709,"frenzy":11710,"sturdy":11711,"restaurant":11712,"arbitr":11713,"fouquet":11714,"indistinct":11715,"swollen":11716,"eleventh":11717,"lukashka":11718,"fen":11719,"kut":11720,"nasty":11721,"opt":11722,"##nest":11723,"hagg":11724,"onto":11725,"stam":11726,"weeds":11727,"alley":11728,"choking":11729,"knitting":11730,"handling":11731,"flattered":11732,"scal":11733,"sciss":11734,"indire":11735,"resisted":11736,"##ceded":11737,"moor":11738,"belg":11739,"guid":11740,"humility":11741,"inspection":11742,"blackness":11743,"burton":11744,"magd":11745,"pretence":11746,"badger":11747,"annual":11748,"provoked":11749,"favoured":11750,"transp":11751,"produces":11752,"denom":11753,"shutting":11754,"antip":11755,"sandford":11756,"baggage":11757,"ferry":11758,"debate":11759,"wales":11760,"representing":11761,"universally":11762,"banquet":11763,"exclusively":11764,"sexes":11765,"comprehension":11766,"phronsie":11767,"overtook":11768,"dusky":11769,"flutter":11770,"selfishness":11771,"speculation":11772,"landlady":11773,"elapsed":11774,"confederate":11775,"shifted":11776,"columbia":11777,"ecstasy":11778,"evolution":11779,"voluntary":11780,"discomfort":11781,"financial":11782,"indescribable":11783,"insignificant":11784,"catastrophe":11785,"alphab":11786,"harriet":11787,"buccane":11788,"bout":11789,"brew":11790,"bail":11791,"bah":11792,"bomb":11793,"dmit":11794,"fists":11795,"gore":11796,"gum":11797,"maud":11798,"sate":11799,"von":11800,"##ocious":11801,"##ront":11802,"##ux":11803,"##yne":11804,"##bl":11805,"##nda":11806,"heark":11807,"##owered":11808,"##seigneur":11809,"hered":11810,"recl":11811,"analog":11812,"depl":11813,"delaw":11814,"nemo":11815,"##ands":11816,"willow":11817,"troll":11818,"grated":11819,"##achuse":11820,"##ello":11821,"carter":11822,"##berg":11823,"scow":11824,"scour":11825,"glowed":11826,"obe":11827,"moham":11828,"earle":11829,"farms":11830,"monseigneur":11831,"restoration":11832,"infam":11833,"pausing":11834,"barry":11835,"airy":11836,"finn":11837,"trials":11838,"devices":11839,"lugg":11840,"worthless":11841,"topic":11842,"jehov":11843,"posted":11844,"violin":11845,"massachuse":11846,"magnetic":11847,"##sylv":11848,"mortals":11849,"ferocious":11850,"width":11851,"clerks":11852,"steadfast":11853,"betroth":11854,"accidental":11855,"##combe":11856,"##forced":11857,"perpetually":11858,"contriv":11859,"controvers":11860,"eloquent":11861,"lilies":11862,"cushions":11863,"tedious":11864,"pennsylv":11865,"chaos":11866,"phantom":11867,"scrutin":11868,"##occup":11869,"freckles":11870,"baza":11871,"gertrude":11872,"mohammed":11873,"jehovah":11874,"massachuset":11875,"aching":11876,"bicy":11877,"eames":11878,"nie":11879,"sized":11880,"wipe":11881,"##oors":11882,"##mering":11883,"##iences":11884,"##atures":11885,"beet":11886,"##ayne":11887,"stunned":11888,"weed":11889,"##ilion":11890,"alleg":11891,"##oreal":11892,"feud":11893,"unint":11894,"broth":11895,"twin":11896,"clump":11897,"impelled":11898,"adieu":11899,"##cia":11900,"cran":11901,"missy":11902,"resume":11903,"desol":11904,"loveliest":11905,"teasp":11906,"##sworth":11907,"##phem":11908,"void":11909,"confinement":11910,"breach":11911,"insens":11912,"excused":11913,"factories":11914,"honored":11915,"spirited":11916,"stepmother":11917,"richest":11918,"forwards":11919,"detach":11920,"acquies":11921,"oblige":11922,"privately":11923,"undo":11924,"undist":11925,"weaker":11926,"anti":11927,"melody":11928,"streaming":11929,"starving":11930,"males":11931,"speedy":11932,"diameter":11933,"smoothly":11934,"undertook":11935,"bucket":11936,"warden":11937,"bridges":11938,"ridicule":11939,"contributed":11940,"merciful":11941,"alternative":11942,"hazel":11943,"surveyed":11944,"humiliation":11945,"impulses":11946,"opponent":11947,"verdict":11948,"penalty":11949,"phillips":11950,"vincent":11951,"peppino":11952,"populace":11953,"luggage":11954,"massachusetts":11955,"ding":11956,"dipped":11957,"gul":11958,"gasp":11959,"nik":11960,"omin":11961,"scept":11962,"##mont":11963,"##iard":11964,"##van":11965,"##oux":11966,"hailed":11967,"shuff":11968,"fried":11969,"wears":11970,"nelson":11971,"enters":11972,"unaw":11973,"worms":11974,"willough":11975,"truck":11976,"twinkling":11977,"##fellow":11978,"cogn":11979,"ado":11980,"disinter":11981,"flask":11982,"cruc":11983,"muk":11984,"##orne":11985,"indication":11986,"moll":11987,"improp":11988,"##acre":11989,"##ivol":11990,"repay":11991,"traffic":11992,"curly":11993,"raz":11994,"milit":11995,"entry":11996,"securing":11997,"##cerf":11998,"sighted":11999,"valiant":12000,"morcerf":12001,"destru":12002,"destitute":12003,"dispersed":12004,"foref":12005,"superfl":12006,"denial":12007,"fixing":12008,"especial":12009,"starlight":12010,"boarding":12011,"scratch":12012,"conductor":12013,"dawned":12014,"hateful":12015,"corrected":12016,"obstacles":12017,"empress":12018,"currents":12019,"rabbits":12020,"appreciated":12021,"leapt":12022,"louisa":12023,"mechanism":12024,"rescued":12025,"attentions":12026,"competition":12027,"galloped":12028,"distribution":12029,"rattled":12030,"document":12031,"hauled":12032,"choosing":12033,"##writing":12034,"chickens":12035,"extinguished":12036,"lonesome":12037,"scissors":12038,"indirect":12039,"pennsylvania":12040,"willoughby":12041,"ether":12042,"hipp":12043,"kitten":12044,"nile":12045,"pots":12046,"rouse":12047,"vines":12048,"zar":12049,"##pole":12050,"##hound":12051,"##cun":12052,"##fax":12053,"##yle":12054,"##vard":12055,"##bted":12056,"##inals":12057,"##ito":12058,"##anter":12059,"##chin":12060,"##child":12061,"rely":12062,"recip":12063,"ante":12064,"buttered":12065,"frivol":12066,"prices":12067,"orth":12068,"alma":12069,"##emen":12070,"wouldst":12071,"comte":12072,"spoon":12073,"clou":12074,"clasping":12075,"gren":12076,"pew":12077,"crushing":12078,"bland":12079,"blamed":12080,"hopped":12081,"charges":12082,"wailing":12083,"engines":12084,"indebted":12085,"excuses":12086,"presenting":12087,"gentleness":12088,"hopeful":12089,"fearfully":12090,"brazil":12091,"quicker":12092,"subjected":12093,"gladness":12094,"particip":12095,"accounted":12096,"milly":12097,"detain":12098,"labours":12099,"strengthened":12100,"embarked":12101,"operate":12102,"operator":12103,"darn":12104,"blindly":12105,"rubbish":12106,"packard":12107,"allowance":12108,"shrub":12109,"dismounted":12110,"communion":12111,"##held":12112,"epoch":12113,"projected":12114,"muscle":12115,"unbroken":12116,"profoundly":12117,"offend":12118,"aristocracy":12119,"routine":12120,"blooming":12121,"tremulous":12122,"swelling":12123,"african":12124,"breeding":12125,"demonstration":12126,"almah":12127,"antony":12128,"explosion":12129,"elevated":12130,"exhaustion":12131,"foster":12132,"unreasonable":12133,"auspicious":12134,"prophecy":12135,"disconcer":12136,"affliction":12137,"olymp":12138,"removal":12139,"ungrateful":12140,"bureau":12141,"improper":12142,"bass":12143,"borrow":12144,"jet":12145,"ni":12146,"roub":12147,"tame":12148,"tel":12149,"um":12150,"##norm":12151,"##wright":12152,"tho":12153,"##rell":12154,"het":12155,"heather":12156,"stony":12157,"weird":12158,"deleg":12159,"##rac":12160,"##raced":12161,"mann":12162,"unself":12163,"brink":12164,"fabr":12165,"spider":12166,"amory":12167,"ammun":12168,"##fell":12169,"coals":12170,"plight":12171,"cros":12172,"molly":12173,"wren":12174,"genie":12175,"veiled":12176,"harding":12177,"barred":12178,"blacks":12179,"blacksmith":12180,"redeem":12181,"bravery":12182,"footing":12183,"arranging":12184,"freight":12185,"duel":12186,"burns":12187,"superfic":12188,"pursu":12189,"garb":12190,"witches":12191,"sighing":12192,"affecting":12193,"customer":12194,"wisest":12195,"deliverance":12196,"testament":12197,"folding":12198,"athens":12199,"magnificence":12200,"fragment":12201,"constitutional":12202,"deceit":12203,"nursing":12204,"administered":12205,"michel":12206,"penetrating":12207,"quivered":12208,"inherited":12209,"jarvis":12210,"mocking":12211,"anthony":12212,"persistent":12213,"insect":12214,"dominion":12215,"rattling":12216,"beckoned":12217,"lifeless":12218,"scottish":12219,"awakening":12220,"drooping":12221,"hannah":12222,"ordinarily":12223,"parrot":12224,"unquestion":12225,"gilded":12226,"neutral":12227,"mushroom":12228,"##quarters":12229,"paragraph":12230,"celestial":12231,"roubles":12232,"ammunition":12233,"lass":12234,"lull":12235,"ramp":12236,"sara":12237,"tires":12238,"va":12239,"wines":12240,"##ela":12241,"##lit":12242,"##piers":12243,"##hurst":12244,"##nets":12245,"##ga":12246,"##die":12247,"##vable":12248,"##asse":12249,"inland":12250,"herbs":12251,"renders":12252,"selection":12253,"choc":12254,"liz":12255,"##rigg":12256,"##ustra":12257,"enrich":12258,"abnorm":12259,"arises":12260,"spurs":12261,"spacious":12262,"cling":12263,"bohem":12264,"cob":12265,"howling":12266,"program":12267,"stren":12268,"strove":12269,"peck":12270,"smashed":12271,"##athustra":12272,"sliding":12273,"warmed":12274,"engaging":12275,"evans":12276,"confided":12277,"terry":12278,"##boat":12279,"cheered":12280,"cheval":12281,"reduce":12282,"snapping":12283,"forgiveness":12284,"raff":12285,"deput":12286,"honoured":12287,"patted":12288,"patric":12289,"orderly":12290,"brake":12291,"necessities":12292,"heavier":12293,"drawers":12294,"quarrels":12295,"##ricate":12296,"queens":12297,"forego":12298,"terrier":12299,"verb":12300,"drinks":12301,"acceptance":12302,"turret":12303,"sickly":12304,"jewish":12305,"candy":12306,"delicately":12307,"oneself":12308,"describing":12309,"martial":12310,"despairing":12311,"stationed":12312,"jersey":12313,"grinding":12314,"augustus":12315,"tarzan":12316,"emotional":12317,"tortured":12318,"grieve":12319,"barking":12320,"trotted":12321,"toss":12322,"whiteness":12323,"doctrines":12324,"junior":12325,"monarchy":12326,"festival":12327,"tangled":12328,"bustle":12329,"displeased":12330,"premises":12331,"nickleby":12332,"worshipped":12333,"compromise":12334,"reconciled":12335,"rheum":12336,"hudson":12337,"alphabet":12338,"dmitri":12339,"zarathustra":12340,"cloudy":12341,"cust":12342,"dante":12343,"gull":12344,"gip":12345,"hatter":12346,"hug":12347,"nu":12348,"ny":12349,"tut":12350,"tutor":12351,"##uating":12352,"##lier":12353,"##haw":12354,"##gard":12355,"##dri":12356,"##enity":12357,"##oric":12358,"toll":12359,"toys":12360,"##oning":12361,"##ano":12362,"inasmuch":12363,"bead":12364,"##utter":12365,"##etery":12366,"##imo":12367,"mane":12368,"##empl":12369,"broo":12370,"spun":12371,"ambr":12372,"cod":12373,"adored":12374,"strat":12375,"##udged":12376,"peers":12377,"crater":12378,"##berts":12379,"##rogen":12380,"menace":12381,"swine":12382,"headquarters":12383,"##acies":12384,"accidents":12385,"endurance":12386,"graces":12387,"genji":12388,"warfare":12389,"monton":12390,"delusion":12391,"activities":12392,"lawful":12393,"##ogra":12394,"strewn":12395,"burial":12396,"strap":12397,"discoveries":12398,"favored":12399,"characteristics":12400,"dispose":12401,"comforts":12402,"bathing":12403,"rapture":12404,"pathetic":12405,"shutters":12406,"cleaned":12407,"lowering":12408,"heroine":12409,"kingdoms":12410,"talbot":12411,"threats":12412,"bulls":12413,"dwellings":12414,"environ":12415,"##coming":12416,"noblest":12417,"obstru":12418,"silken":12419,"stupidity":12420,"apprehended":12421,"sovereignty":12422,"imprud":12423,"sorely":12424,"raymond":12425,"preaching":12426,"osborne":12427,"dazed":12428,"deprive":12429,"enclosure":12430,"congratulate":12431,"wicker":12432,"karl":12433,"oppressive":12434,"##uzov":12435,"chemical":12436,"lorry":12437,"saxon":12438,"alexandrovitch":12439,"sterling":12440,"pettico":12441,"obstinacy":12442,"zadig":12443,"roulet":12444,"felix":12445,"pussy":12446,"maurice":12447,"cemetery":12448,"kutuzov":12449,"destructive":12450,"gipsy":12451,"montoni":12452,"biting":12453,"ecl":12454,"file":12455,"hound":12456,"kay":12457,"pau":12458,"yon":12459,"##groom":12460,"theater":12461,"##eration":12462,"##edd":12463,"##onne":12464,"beads":12465,"stations":12466,"stored":12467,"heret":12468,"##amented":12469,"channing":12470,"libert":12471,"concess":12472,"cann":12473,"grains":12474,"usage":12475,"scrib":12476,"##acent":12477,"presby":12478,"boyhood":12479,"tract":12480,"coloss":12481,"metrop":12482,"chees":12483,"##odox":12484,"invested":12485,"fearless":12486,"irony":12487,"forts":12488,"tenant":12489,"sprinkled":12490,"sweeth":12491,"palp":12492,"murray":12493,"hopkins":12494,"influenced":12495,"iceland":12496,"raging":12497,"benches":12498,"##ettes":12499,"disturbing":12500,"jerked":12501,"bullets":12502,"baskets":12503,"accidentally":12504,"catholics":12505,"arabs":12506,"sparkled":12507,"bridegroom":12508,"crawling":12509,"reckoning":12510,"borders":12511,"cavalc":12512,"swelled":12513,"mockery":12514,"lustre":12515,"shivering":12516,"cowardly":12517,"overlooked":12518,"candidate":12519,"baptism":12520,"exaggerated":12521,"whims":12522,"agriculture":12523,"pansy":12524,"richer":12525,"morris":12526,"proclamation":12527,"magdalen":12528,"hetty":12529,"aper":12530,"dances":12531,"eun":12532,"pia":12533,"puls":12534,"tire":12535,"vas":12536,"##rin":12537,"##ris":12538,"##nish":12539,"##bie":12540,"##atches":12541,"tok":12542,"##oma":12543,"##otism":12544,"##etto":12545,"stature":12546,"anita":12547,"##cting":12548,"##raved":12549,"##akers":12550,"##akov":12551,"boar":12552,"thrilling":12553,"peeping":12554,"precept":12555,"indies":12556,"##iousness":12557,"complac":12558,"fared":12559,"distances":12560,"distorted":12561,"tended":12562,"waz":12563,"monop":12564,"trav":12565,"relent":12566,"reads":12567,"##pring":12568,"invasion":12569,"burgl":12570,"palms":12571,"castles":12572,"utility":12573,"defer":12574,"regardless":12575,"riders":12576,"despond":12577,"matron":12578,"impossibility":12579,"oriental":12580,"##zza":12581,"starve":12582,"represents":12583,"situations":12584,"injure":12585,"morton":12586,"butterflies":12587,"benj":12588,"titles":12589,"grind":12590,"unhappiness":12591,"primary":12592,"austria":12593,"nurses":12594,"ribs":12595,"appealing":12596,"mascul":12597,"rufford":12598,"bertram":12599,"precipice":12600,"trumpets":12601,"resource":12602,"irritation":12603,"stuart":12604,"refreshed":12605,"refreshment":12606,"plucked":12607,"documents":12608,"enquir":12609,"shifting":12610,"merrick":12611,"slippery":12612,"stifled":12613,"righteousness":12614,"scanty":12615,"befallen":12616,"turkish":12617,"dynam":12618,"replies":12619,"australia":12620,"disregard":12621,"virgil":12622,"automobile":12623,"##aparte":12624,"guidance":12625,"chocolate":12626,"dashing":12627,"eury":12628,"gems":12629,"kite":12630,"laud":12631,"rains":12632,"si":12633,"voted":12634,"vrain":12635,"##tles":12636,"##pill":12637,"##iots":12638,"##ca":12639,"##cas":12640,"##no":12641,"##aroo":12642,"##otted":12643,"##icit":12644,"##stood":12645,"asp":12646,"stag":12647,"anci":12648,"fraud":12649,"##lford":12650,"unpr":12651,"##ifice":12652,"abilities":12653,"amph":12654,"clatter":12655,"caring":12656,"whereof":12657,"##roach":12658,"partition":12659,"scaff":12660,"remed":12661,"resulted":12662,"mold":12663,"natures":12664,"subter":12665,"regiments":12666,"hardest":12667,"propert":12668,"terrors":12669,"larry":12670,"cheery":12671,"factor":12672,"admon":12673,"busily":12674,"##ogue":12675,"brazen":12676,"explor":12677,"societies":12678,"cork":12679,"##ugal":12680,"pictured":12681,"errant":12682,"wrongs":12683,"thorndy":12684,"excellence":12685,"venet":12686,"gateway":12687,"luckily":12688,"impressive":12689,"speechless":12690,"customers":12691,"davis":12692,"##minster":12693,"associates":12694,"vigour":12695,"inquiring":12696,"cells":12697,"involve":12698,"explanations":12699,"##umberland":12700,"convincing":12701,"moods":12702,"ivy":12703,"cambridge":12704,"trifles":12705,"litter":12706,"adjusted":12707,"tossing":12708,"deliberation":12709,"straining":12710,"psychology":12711,"persever":12712,"inexpress":12713,"glittered":12714,"consistent":12715,"tolerably":12716,"maximilian":12717,"binding":12718,"ascertained":12719,"reinforce":12720,"##manship":12721,"vinegar":12722,"rector":12723,"inconvenience":12724,"benevolence":12725,"enlightened":12726,"fitzpiers":12727,"inconsist":12728,"multiplied":12729,"sentinel":12730,"demean":12731,"unlocked":12732,"stanley":12733,"ecclesiastical":12734,"kenneth":12735,"infernal":12736,"scaffold":12737,"thorndyke":12738,"battered":12739,"dia":12740,"kl":12741,"rites":12742,"tumbling":12743,"##mers":12744,"##mark":12745,"##point":12746,"thur":12747,"##orph":12748,"toe":12749,"##ani":12750,"beak":12751,"beans":12752,"##lem":12753,"##leigh":12754,"##icular":12755,"##icane":12756,"stacy":12757,"##champ":12758,"sep":12759,"chased":12760,"##the":12761,"##raz":12762,"enraged":12763,"##ooks":12764,"quot":12765,"click":12766,"seeks":12767,"pert":12768,"flann":12769,"pecun":12770,"muzzle":12771,"swoon":12772,"##ighter":12773,"joking":12774,"nightm":12775,"slices":12776,"repast":12777,"tex":12778,"guiche":12779,"monica":12780,"phase":12781,"vein":12782,"assign":12783,"fourteenth":12784,"curved":12785,"##ibal":12786,"needles":12787,"raced":12788,"beset":12789,"polar":12790,"promote":12791,"constern":12792,"successor":12793,"frontier":12794,"mouthful":12795,"mature":12796,"straightway":12797,"denzil":12798,"treating":12799,"inclinations":12800,"growl":12801,"necks":12802,"##erville":12803,"messengers":12804,"blindness":12805,"modes":12806,"imperative":12807,"murmuring":12808,"execute":12809,"locality":12810,"unfit":12811,"possessing":12812,"familiarity":12813,"associate":12814,"senor":12815,"exclusion":12816,"barbicane":12817,"flourish":12818,"windsor":12819,"revenue":12820,"gowns":12821,"adjacent":12822,"leisurely":12823,"contemplated":12824,"rifles":12825,"concealment":12826,"definitely":12827,"contribute":12828,"fountains":12829,"fowls":12830,"reluctance":12831,"##itzer":12832,"provincial":12833,"benevolent":12834,"perchance":12835,"incessantly":12836,"##stein":12837,"advertisement":12838,"dulc":12839,"typical":12840,"caterpill":12841,"ingredients":12842,"haggard":12843,"bazaar":12844,"chevalier":12845,"consternation":12846,"bub":12847,"bool":12848,"bates":12849,"giles":12850,"jake":12851,"ko":12852,"kang":12853,"lem":12854,"lena":12855,"mace":12856,"ody":12857,"pim":12858,"pion":12859,"rowed":12860,"ranged":12861,"##hol":12862,"##court":12863,"##ester":12864,"##oner":12865,"inacc":12866,"##requ":12867,"##iders":12868,"upl":12869,"##ositions":12870,"comedy":12871,"outf":12872,"broom":12873,"arising":12874,"trains":12875,"bog":12876,"##assing":12877,"coins":12878,"overse":12879,"handwriting":12880,"carb":12881,"flown":12882,"##abilities":12883,"foll":12884,"indisc":12885,"imped":12886,"console":12887,"slugg":12888,"interm":12889,"foundations":12890,"##ixed":12891,"perspiration":12892,"##sels":12893,"genial":12894,"##ictions":12895,"formula":12896,"fewer":12897,"insolence":12898,"simpson":12899,"needless":12900,"finishing":12901,"milburgh":12902,"mercil":12903,"profitable":12904,"valor":12905,"corinth":12906,"publish":12907,"respective":12908,"fasten":12909,"divinity":12910,"##pending":12911,"avar":12912,"sighs":12913,"hubert":12914,"threaten":12915,"solemnity":12916,"##sett":12917,"excitedly":12918,"beliefs":12919,"recollected":12920,"enthusiast":12921,"rustle":12922,"hangs":12923,"ache":12924,"theatrical":12925,"overtake":12926,"legislation":12927,"fantine":12928,"reluctant":12929,"navigation":12930,"assassin":12931,"##ooroo":12932,"beauchamp":12933,"technical":12934,"metaphys":12935,"alfred":12936,"expenditure":12937,"moustache":12938,"episode":12939,"receiver":12940,"##ographer":12941,"boolooroo":12942,"kangaroo":12943,"merciless":12944,"cav":12945,"mitch":12946,"pane":12947,"pike":12948,"piety":12949,"pension":12950,"tides":12951,"##oise":12952,"##aunt":12953,"##lud":12954,"##xion":12955,"##vo":12956,"##erby":12957,"beaming":12958,"saith":12959,"##ourn":12960,"leco":12961,"enact":12962,"grade":12963,"imitate":12964,"howard":12965,"disl":12966,"proving":12967,"flows":12968,"thrilled":12969,"##ickers":12970,"indoors":12971,"slam":12972,"serf":12973,"tebr":12974,"##avia":12975,"engross":12976,"propag":12977,"advances":12978,"schoo":12979,"burdens":12980,"trigger":12981,"profits":12982,"paler":12983,"equival":12984,"geography":12985,"include":12986,"immater":12987,"winterbourne":12988,"##zzy":12989,"miriam":12990,"magnitude":12991,"clapping":12992,"motioned":12993,"moderation":12994,"towering":12995,"communities":12996,"gradual":12997,"##burst":12998,"pretext":12999,"jerk":13000,"diary":13001,"cordially":13002,"mystic":13003,"exclusive":13004,"buckingham":13005,"nobler":13006,"copies":13007,"contemptuous":13008,"prede":13009,"odour":13010,"absurdity":13011,"districts":13012,"threads":13013,"funds":13014,"wireless":13015,"gwend":13016,"orchest":13017,"overwhelming":13018,"conqueror":13019,"miserably":13020,"clarence":13021,"kentucky":13022,"ounce":13023,"accusation":13024,"hardships":13025,"mazarin":13026,"incomprehensible":13027,"equipment":13028,"tasks":13029,"plentiful":13030,"preliminary":13031,"wizard":13032,"vanquished":13033,"abominable":13034,"odys":13035,"lecoq":13036,"aided":13037,"bened":13038,"baw":13039,"circling":13040,"gear":13041,"kara":13042,"roo":13043,"tumble":13044,"vot":13045,"vert":13046,"##maker":13047,"##iere":13048,"##craft":13049,"##folk":13050,"thwart":13051,"##enne":13052,"##ingley":13053,"##itory":13054,"haze":13055,"##utton":13056,"shines":13057,"##eton":13058,"foret":13059,"forcing":13060,"soaked":13061,"myri":13062,"convert":13063,"enig":13064,"unrest":13065,"integr":13066,"spied":13067,"amiss":13068,"disob":13069,"carrie":13070,"pebbles":13071,"camel":13072,"scented":13073,"impenet":13074,"attic":13075,"laced":13076,"commiss":13077,"wanton":13078,"pleading":13079,"reginald":13080,"brenda":13081,"skilled":13082,"##oki":13083,"realise":13084,"signals":13085,"illeg":13086,"circulation":13087,"sums":13088,"util":13089,"crosses":13090,"apoll":13091,"bearer":13092,"solve":13093,"despatched":13094,"posterity":13095,"journeys":13096,"unde":13097,"##archy":13098,"degener":13099,"##ologist":13100,"occupations":13101,"fergus":13102,"statues":13103,"bleak":13104,"praises":13105,"extends":13106,"envious":13107,"sylvie":13108,"kenw":13109,"principally":13110,"fragrance":13111,"hints":13112,"millionaire":13113,"camps":13114,"wakem":13115,"ornamented":13116,"aristot":13117,"improvements":13118,"convenience":13119,"fascination":13120,"uncertainty":13121,"implored":13122,"diversion":13123,"adequate":13124,"prevailing":13125,"lounge":13126,"sicily":13127,"smothered":13128,"kadok":13129,"spraw":13130,"teles":13131,"environment":13132,"masculine":13133,"pecuniary":13134,"mitchell":13135,"bac":13136,"bower":13137,"dab":13138,"hord":13139,"jol":13140,"mit":13141,"rar":13142,"vouch":13143,"##mpt":13144,"##uber":13145,"##yll":13146,"##zar":13147,"##idays":13148,"##sex":13149,"reh":13150,"anec":13151,"atom":13152,"prest":13153,"deity":13154,"alluded":13155,"chart":13156,"chaff":13157,"##riers":13158,"##thia":13159,"compe":13160,"abject":13161,"bray":13162,"brus":13163,"intu":13164,"##igible":13165,"grub":13166,"loom":13167,"marqu":13168,"##abille":13169,"undergone":13170,"scam":13171,"##athed":13172,"##cod":13173,"embod":13174,"imple":13175,"##ensively":13176,"nightfall":13177,"##airy":13178,"##mann":13179,"warlike":13180,"monsters":13181,"elastic":13182,"confidently":13183,"steven":13184,"advis":13185,"mastered":13186,"honours":13187,"recourse":13188,"coronel":13189,"salmon":13190,"approbation":13191,"riddle":13192,"ports":13193,"terrif":13194,"planning":13195,"acceptable":13196,"temperance":13197,"obligations":13198,"muttering":13199,"disappearing":13200,"hosts":13201,"cleaning":13202,"shrunk":13203,"peculiarity":13204,"systems":13205,"gloomily":13206,"birch":13207,"processes":13208,"shameful":13209,"similarly":13210,"triumphantly":13211,"travelers":13212,"industrious":13213,"securely":13214,"emergency":13215,"printing":13216,"apprehensions":13217,"correctly":13218,"linger":13219,"austin":13220,"pronounce":13221,"collecting":13222,"##keepers":13223,"emphatically":13224,"sedley":13225,"launched":13226,"portraits":13227,"flattery":13228,"alternately":13229,"shirts":13230,"crouching":13231,"teddy":13232,"scrup":13233,"assumption":13234,"merriment":13235,"energies":13236,"drowning":13237,"mentally":13238,"tucked":13239,"disadvantage":13240,"congregation":13241,"##unciation":13242,"jacques":13243,"enlarged":13244,"compartment":13245,"bicycle":13246,"disinterested":13247,"##driver":13248,"benjamin":13249,"ancients":13250,"tebrick":13251,"anecd":13252,"bere":13253,"bingley":13254,"gables":13255,"gurg":13256,"jerv":13257,"pom":13258,"puck":13259,"pairs":13260,"ramb":13261,"site":13262,"##ugn":13263,"##gars":13264,"##bra":13265,"##inian":13266,"##ouched":13267,"##onge":13268,"infect":13269,"whoop":13270,"##oty":13271,"forfe":13272,"##iration":13273,"##ioned":13274,"anat":13275,"sections":13276,"pricked":13277,"soj":13278,"suite":13279,"##alls":13280,"##ili":13281,"nekh":13282,"livid":13283,"alan":13284,"enm":13285,"unear":13286,"brad":13287,"##amel":13288,"spit":13289,"aggress":13290,"knowest":13291,"marl":13292,"cram":13293,"smugg":13294,"glove":13295,"compose":13296,"accuse":13297,"slo":13298,"slant":13299,"retiring":13300,"sawyer":13301,"##pective":13302,"courses":13303,"armstrong":13304,"suppress":13305,"evap":13306,"assailed":13307,"expose":13308,"##ailing":13309,"incor":13310,"famine":13311,"sleigh":13312,"lays":13313,"powerless":13314,"snug":13315,"extension":13316,"merlin":13317,"invaded":13318,"recre":13319,"recur":13320,"fairer":13321,"signify":13322,"clearness":13323,"constable":13324,"explore":13325,"drives":13326,"cutter":13327,"stragg":13328,"discrim":13329,"deference":13330,"##ova":13331,"senseless":13332,"bounding":13333,"conniston":13334,"apparition":13335,"neglig":13336,"futile":13337,"attacking":13338,"wearied":13339,"mortimer":13340,"balt":13341,"exerted":13342,"pierce":13343,"rendering":13344,"pitied":13345,"persuasion":13346,"shelves":13347,"cords":13348,"epist":13349,"desperation":13350,"contemptuously":13351,"stiffly":13352,"protector":13353,"stretches":13354,"desiring":13355,"exceptional":13356,"anticipation":13357,"elegance":13358,"survive":13359,"accuracy":13360,"frowning":13361,"enchantment":13362,"orthodox":13363,"properties":13364,"##ludoff":13365,"predecess":13366,"nekhludoff":13367,"dess":13368,"dip":13369,"loses":13370,"nit":13371,"porr":13372,"pins":13373,"sane":13374,"tant":13375,"##met":13376,"##rity":13377,"##spring":13378,"##aic":13379,"##pread":13380,"##voc":13381,"theor":13382,"##inburgh":13383,"##enches":13384,"inco":13385,"##veying":13386,"##chment":13387,"isa":13388,"safer":13389,"##usc":13390,"##emper":13391,"arrog":13392,"##igger":13393,"facil":13394,"sper":13395,"spru":13396,"canon":13397,"clenched":13398,"pertur":13399,"goodly":13400,"scy":13401,"scope":13402,"scores":13403,"switch":13404,"donald":13405,"armand":13406,"##uben":13407,"guinea":13408,"regain":13409,"kindled":13410,"curves":13411,"paced":13412,"barra":13413,"edinburgh":13414,"metall":13415,"metals":13416,"redd":13417,"hurts":13418,"fortified":13419,"demons":13420,"caves":13421,"providing":13422,"thirds":13423,"conversed":13424,"romola":13425,"boundary":13426,"stops":13427,"hyster":13428,"georgia":13429,"clair":13430,"malady":13431,"poetic":13432,"holiness":13433,"holidays":13434,"railing":13435,"ruling":13436,"duncan":13437,"odds":13438,"powdered":13439,"vicious":13440,"engagements":13441,"diseases":13442,"nursed":13443,"identified":13444,"crawl":13445,"inexper":13446,"mercury":13447,"accurately":13448,"translated":13449,"persecution":13450,"prettiest":13451,"defects":13452,"arkady":13453,"conferred":13454,"luxurious":13455,"discontent":13456,"incessant":13457,"gretel":13458,"##anthrop":13459,"unequal":13460,"besieged":13461,"elphick":13462,"pamph":13463,"therm":13464,"hereditary":13465,"mukoki":13466,"forefinger":13467,"superfluous":13468,"frivolous":13469,"superficial":13470,"hatteras":13471,"flannel":13472,"aristotle":13473,"jervis":13474,"bung":13475,"cair":13476,"epic":13477,"gains":13478,"mig":13479,"vel":13480,"##encing":13481,"##enna":13482,"##onna":13483,"##itiveness":13484,"aspir":13485,"hissing":13486,"sap":13487,"semb":13488,"##aman":13489,"dole":13490,"##ulity":13491,"##anti":13492,"unres":13493,"##laces":13494,"arched":13495,"trench":13496,"aft":13497,"canop":13498,"##eph":13499,"clamber":13500,"##cily":13501,"perfor":13502,"apprent":13503,"longest":13504,"blas":13505,"scree":13506,"gloss":13507,"moore":13508,"joints":13509,"farthest":13510,"repugn":13511,"norah":13512,"##owering":13513,"genus":13514,"waterfall":13515,"blazed":13516,"snub":13517,"reasoned":13518,"catar":13519,"madman":13520,"sumter":13521,"sleeps":13522,"strand":13523,"fellowship":13524,"effectually":13525,"salad":13526,"morbid":13527,"sensibility":13528,"brightened":13529,"bearings":13530,"numbered":13531,"detailed":13532,"suggests":13533,"admirably":13534,"physically":13535,"calmness":13536,"hester":13537,"habitation":13538,"clavering":13539,"urs":13540,"urging":13541,"##ancourt":13542,"judgement":13543,"performing":13544,"fondly":13545,"bennet":13546,"located":13547,"spectator":13548,"unsus":13549,"representation":13550,"smoothed":13551,"foxes":13552,"aims":13553,"horrified":13554,"subsided":13555,"flashes":13556,"avenge":13557,"calculation":13558,"intrins":13559,"inexplic":13560,"excessively":13561,"attribute":13562,"tolerable":13563,"grinning":13564,"tyrann":13565,"champagne":13566,"solicitude":13567,"stupe":13568,"translation":13569,"chattering":13570,"fluid":13571,"tropical":13572,"squeezed":13573,"simplest":13574,"pigeon":13575,"ounces":13576,"hebrews":13577,"haunts":13578,"huntsman":13579,"philosophical":13580,"corporeal":13581,"miraculous":13582,"hurstwood":13583,"mischievous":13584,"plunging":13585,"rouletabille":13586,"presbyter":13587,"equivalent":13588,"kenwigs":13589,"bould":13590,"dau":13591,"dund":13592,"diction":13593,"iro":13594,"linton":13595,"nar":13596,"nether":13597,"sings":13598,"tense":13599,"tinder":13600,"wrigg":13601,"##mons":13602,"##ko":13603,"##ba":13604,"##bro":13605,"##anse":13606,"##lete":13607,"##otent":13608,"##idy":13609,"notable":13610,"nothin":13611,"sabb":13612,"sect":13613,"meg":13614,"chal":13615,"lied":13616,"livery":13617,"alms":13618,"unite":13619,"outlaw":13620,"outburst":13621,"##laid":13622,"truce":13623,"twigs":13624,"canals":13625,"##quois":13626,"##acked":13627,"diso":13628,"perpend":13629,"carl":13630,"pod":13631,"appalling":13632,"crops":13633,"offspring":13634,"scan":13635,"plaus":13636,"enduring":13637,"guineas":13638,"register":13639,"confine":13640,"helium":13641,"exposure":13642,"puritan":13643,"##pses":13644,"mornings":13645,"insight":13646,"sentry":13647,"barley":13648,"harrington":13649,"extinct":13650,"singer":13651,"patients":13652,"doubtfully":13653,"brack":13654,"musing":13655,"footpr":13656,"coldness":13657,"valancourt":13658,"ceas":13659,"pays":13660,"chairman":13661,"youths":13662,"boundless":13663,"melting":13664,"replying":13665,"owen":13666,"owes":13667,"dimensions":13668,"package":13669,"flags":13670,"malicious":13671,"ferdin":13672,"amazon":13673,"durrance":13674,"constantin":13675,"retreating":13676,"oxy":13677,"scrape":13678,"bolts":13679,"manifested":13680,"darting":13681,"outlines":13682,"jenks":13683,"junction":13684,"trimmed":13685,"bewilder":13686,"vividly":13687,"pacing":13688,"photopl":13689,"marvelled":13690,"surrendered":13691,"fainting":13692,"indications":13693,"omitted":13694,"architect":13695,"prowess":13696,"moaned":13697,"lurking":13698,"amendment":13699,"eugene":13700,"entrusted":13701,"ransom":13702,"loosened":13703,"peacock":13704,"conservative":13705,"giddy":13706,"chivalry":13707,"cossacks":13708,"ejaculated":13709,"caravan":13710,"gordon":13711,"horizontal":13712,"immaterial":13713,"cataract":13714,"iroquois":13715,"perpendicular":13716,"ferdinand":13717,"ari":13718,"ached":13719,"daint":13720,"gin":13721,"hive":13722,"kh":13723,"nimble":13724,"ore":13725,"##mot":13726,"##rations":13727,"##town":13728,"##walk":13729,"##bble":13730,"##jan":13731,"tool":13732,"##itar":13733,"##itives":13734,"##anity":13735,"beats":13736,"shri":13737,"shack":13738,"##ima":13739,"##ala":13740,"sock":13741,"##iliar":13742,"chir":13743,"##ardy":13744,"alac":13745,"knots":13746,"##arton":13747,"unit":13748,"unsh":13749,"brok":13750,"willis":13751,"rooted":13752,"roberts":13753,"amos":13754,"clasp":13755,"##ptuous":13756,"strata":13757,"poys":13758,"blight":13759,"smok":13760,"##ffer":13761,"compound":13762,"switzer":13763,"newcom":13764,"highland":13765,"maze":13766,"inference":13767,"inflicted":13768,"relatively":13769,"##vention":13770,"generously":13771,"insulted":13772,"skirm":13773,"paved":13774,"standards":13775,"barrels":13776,"meters":13777,"signifies":13778,"waller":13779,"objective":13780,"misty":13781,"squat":13782,"##ahad":13783,"lufton":13784,"duc":13785,"straightened":13786,"posture":13787,"galleries":13788,"demanding":13789,"apparel":13790,"civility":13791,"employer":13792,"hostility":13793,"conceit":13794,"concealing":13795,"frankness":13796,"accompanying":13797,"regularity":13798,"accomplishment":13799,"suggestive":13800,"renown":13801,"bathe":13802,"##ographical":13803,"trader":13804,"illustrated":13805,"##evitch":13806,"andrews":13807,"rudely":13808,"contemplate":13809,"entreaties":13810,"graciously":13811,"galahad":13812,"crocod":13813,"foresee":13814,"interfered":13815,"frederic":13816,"alteration":13817,"wiping":13818,"fleece":13819,"##ridges":13820,"antonia":13821,"recommendation":13822,"moaning":13823,"reassured":13824,"ferns":13825,"unaccountable":13826,"opponents":13827,"hoopdriver":13828,"elmwood":13829,"biscuit":13830,"exterior":13831,"pulpit":13832,"baffled":13833,"yacht":13834,"arbitrary":13835,"piazza":13836,"texas":13837,"alacrity":13838,"switzerland":13839,"core":13840,"era":13841,"hier":13842,"nett":13843,"yale":13844,"##tie":13845,"##nity":13846,"##nikov":13847,"thea":13848,"##erst":13849,"##atism":13850,"wharf":13851,"##oway":13852,"herb":13853,"dose":13854,"alco":13855,"wills":13856,"##laus":13857,"##lage":13858,"arctic":13859,"spat":13860,"spoonful":13861,"grumbled":13862,"fling":13863,"##robe":13864,"lets":13865,"##meas":13866,"swan":13867,"imply":13868,"accost":13869,"intern":13870,"wail":13871,"gib":13872,"confound":13873,"mini":13874,"ministry":13875,"refinement":13876,"colbert":13877,"##xton":13878,"continu":13879,"quicks":13880,"##etheus":13881,"devast":13882,"floors":13883,"strips":13884,"maryland":13885,"resolutions":13886,"trusting":13887,"streamed":13888,"starvation":13889,"garth":13890,"deserts":13891,"archer":13892,"domest":13893,"shrinking":13894,"jerome":13895,"berg":13896,"baroness":13897,"immensely":13898,"projecting":13899,"egyptians":13900,"medicines":13901,"cheerfulness":13902,"precision":13903,"preacher":13904,"oaths":13905,"zealous":13906,"boasted":13907,"shields":13908,"inconce":13909,"torrents":13910,"clutching":13911,"exertions":13912,"josie":13913,"jailer":13914,"condemnation":13915,"mathematics":13916,"fugitive":13917,"diligence":13918,"fyodorovitch":13919,"coincidence":13920,"guarant":13921,"cylinder":13922,"tissue":13923,"insufficient":13924,"juris":13925,"matrimony":13926,"tete":13927,"betrothed":13928,"wazir":13929,"perseverance":13930,"nightmare":13931,
[...]
